/**
  ******************************************************************************
  * @file    network_data_params.c
  * @author  AST Embedded Analytics Research Platform
  * @date    Tue Oct  4 20:46:53 2022
  * @brief   AI Tool Automatic Code Generator for Embedded NN computing
  ******************************************************************************
  * Copyright (c) 2022 STMicroelectronics.
  * All rights reserved.
  *
  * This software is licensed under terms that can be found in the LICENSE file
  * in the root directory of this software component.
  * If no LICENSE file comes with this software, it is provided AS-IS.
  ******************************************************************************
  */

#include "network_data_params.h"


/**  Activations Section  ****************************************************/
ai_handle g_network_activations_table[1 + 2] = {
  AI_HANDLE_PTR(AI_MAGIC_MARKER),
  AI_HANDLE_PTR(NULL),
  AI_HANDLE_PTR(AI_MAGIC_MARKER),
};




/**  Weights Section  ********************************************************/
AI_ALIGNED(32)
const ai_u64 s_network_weights_array_u64[6038] = {
  0xbeed1e3dbe3dc4c4U, 0x3e14cd88bec531a4U, 0xbe3708663c7c3308U, 0xbea70e2c3e9e301fU,
  0xbbe356cb3e1fb72bU, 0x3ec74643be8541f3U, 0xbcb6c0e53d9f254cU, 0x3eb3a9bbbe535d89U,
  0xbea75ae23e676c04U, 0xbef39150be00a41dU, 0x3d68e2b33cbe1f6fU, 0xbe5dfcadbe9190afU,
  0xbe945ab33e80a3abU, 0xbe0f7cccbe912e47U, 0x3f05a2813d548b33U, 0x3f02d015beb6f6ecU,
  0xbf0ae36b3eb2f6e6U, 0x3f11752f3e141928U, 0xbda4f0c7bea54a4bU, 0x3d7367763ed56befU,
  0xbe84a859bec3adefU, 0xbe93f1933f042529U, 0xbe8470babe89ad33U, 0x3eb6a77f3f1db864U,
  0x3d396768be671e9eU, 0x3e77026c3e13f6cbU, 0xbd98e632bee7cfc3U, 0x3dbadbbabd17dc38U,
  0xbd6bbd4c3e75ed34U, 0x3d46c042bd558961U, 0x3e6361043f24a334U, 0xbe2f3ba2beb30e04U,
  0x3d4eb7333edbed7eU, 0x3e828e573eab8404U, 0x3e507b39be0024e0U, 0xbe3daf403e9c2feeU,
  0xbb9689c63f204021U, 0x3cbe05ba3e58a605U, 0x3ea1ceb5bd8eaf55U, 0x3ea0f4b8be78f6c4U,
  0x3e52246c3e87e664U, 0xbeaf8204bf12ec50U, 0x3ea3f9fd3ae4cb5bU, 0xbed14f7fbe1dabdeU,
  0x3eec9fa03e2b3e1fU, 0x3ebaa006befa2989U, 0xbe8f878b3da4bb8bU, 0x3db51d08bdf62830U,
  0xbea592d2bd0c0d65U, 0xbe4b822fbe8eeb0cU, 0x3e8799f93ebb9f2cU, 0x3ecfaca4bf0e9c5aU,
  0xbf11da9b3df8f8f0U, 0xbe60b265be395a3cU, 0x3df80bdc3eb082a8U, 0x3e64409ebd776236U,
  0xbe954f8d3e64983dU, 0x3d3ee9fbbe51e31fU, 0x3eb7035fbe3b1ab5U, 0x3cda7f3cbedd2b11U,
  0xbe8588bf3ecea426U, 0x3e90767fbec59006U, 0xbefc900bbe28de2dU, 0x3eb62df2bdae8b90U,
  0xbe395fa6be1da1c3U, 0x3dc770c03e96aabeU, 0xbcb6b79abde6cadeU, 0x3e8f690fbe4681fbU,
  0x3eacdc3dbe59ff3dU, 0x3dd9d2733e045383U, 0x3e508a163ddc446cU, 0xbe5ee545bd14c724U,
  0xbbb4b7003dc54fe6U, 0xbbca1bb73d9b3d1dU, 0xbb858e9a3ce31068U, 0xbe1985393d869192U,
  0x3d2ab4d4bd986e0bU, 0xbd7cd3b13dd64059U, 0x3c274b513cdf1df3U, 0x3d020a193de5b8bfU,
  0x3e361030bf2ac530U, 0xbea413ffbef3b0adU, 0xbc47d86fbe09458bU, 0x3e6c39853e582c0cU,
  0xbda7120c3ec180f5U, 0x3eb363c6bc692bb0U, 0xbe88dbac3d42b3dcU, 0xbd7d355e3df9328cU,
  0x3e3144c7bf745db4U, 0xbe6450c2bf155ef4U, 0x3d287512bed1b792U, 0x3d5500b2be6a3120U,
  0x3e41ee353e90b1a2U, 0x3e74479dbcc6baf2U, 0xbe42fa093cbf8a20U, 0x3e94b8ad3e17f7cbU,
  0x3eb11d45bf05aa6cU, 0xbeb75f90be05c311U, 0x3de31720bf00f99fU, 0xbe90abec3e3e7028U,
  0x3e5f80a53ede9099U, 0x3e1d3c673e8bb279U, 0xbc1633703e4d8035U, 0x3c8a48bf3d572fa3U,
  0x3e73cea9be3f0d38U, 0x3e382ac13e7e5b5eU, 0xbe1d298f3e48782dU, 0xbe090675be047110U,
  0x3e604aedbf28f3a5U, 0xbefbce02bd69ee7fU, 0xbf1ea310bf1ba6bdU, 0xbec7bfadbe78a038U,
  0x3db4908d3ce769f9U, 0xbe8371283e30dab2U, 0x3e8e99da3ddbd44eU, 0xbe785593be7c3bf5U,
  0xbdcedba3bf35ba73U, 0xbeb3f27f3d19fd6dU, 0xbf4b3786bee47c1cU, 0xbf49c666bee6decbU,
  0x3e281bbf3e77e7aaU, 0xbd7f9de43cb44890U, 0x3dbc33b8be69e56dU, 0x3d91b716beac2122U,
  0x3d6fbab6bf31f85eU, 0xbde8a2433e5b8294U, 0xbf3dbcb5be129821U, 0xbf1148a2bec9bb7eU,
  0x3e0355ec3e2fe535U, 0xbe7486b2bd9814b0U, 0x3e0e9597bcf6d829U, 0x3cbfdf1c3e8d6850U,
  0xbe759f5c3e4293d7U, 0x3d923db33e1f9ad1U, 0xbe1af3a0bed689e1U, 0xbbd1a9ef3ddcbf93U,
  0xbc9a0b3b3d8d8ea4U, 0x3e20e7a93d787e91U, 0xbc7a77063e6bffa8U, 0xbe21cad33d619dd3U,
  0xbc99d5e13dec3a4dU, 0x3f0e43963dd686a4U, 0x3c596f7fbdb90e42U, 0x3d1bda6abe8abf47U,
  0xbea8fb933ddae60aU, 0xbde5112b3dbe447dU, 0xbe12884a3e5b2cd5U, 0xbe7521733e8777ceU,
  0xbeb9ff6e3da8801fU, 0x3dd96df1be1a3a00U, 0xbcff6282bd8e1d1bU, 0xbdc243c03e0d04bfU,
  0x3dcdbfa93e861fbbU, 0xbe7f616c3eb18d2aU, 0xbedf15993d24436aU, 0x3f1244433dc9df03U,
  0x3ec42ab33b3d9550U, 0x3c2953efbe83f32eU, 0x3dec7f663df92411U, 0xbe20bf1abea65325U,
  0x3ecff9133d7165bbU, 0xbd04f0a4bd552a17U, 0xbea879cabe3dbd11U, 0x3ed53401bca62a11U,
  0x3eb37a663e12755dU, 0x3e197603bea7e8c8U, 0x3e97fc9abdc2a7a4U, 0x3e04d9a0be2c7d9cU,
  0xbe6b47febbaa6f0fU, 0x3ecb2d5fbe9b4018U, 0x3ddccdafbec23744U, 0x3e8e4510beadd531U,
  0x3f04e0183ea6989dU, 0x3ebae2753a9e6b07U, 0xbebd2308bc9fba58U, 0x3d89ef643e31854dU,
  0x3daa4d8cbeb8f396U, 0xbc05b8dcbd8ee3e7U, 0x3efd254abe3331daU, 0x3eb938c73ce26933U,
  0xbf1f66aabe0989baU, 0x3eea1e4b3e9f2167U, 0xbeaacb12be08d5e2U, 0xbe72d1e03e538420U,
  0x3ef38fbc3e109198U, 0xbdcefa17bda161ecU, 0x3ea4ce4e3ec77e90U, 0x3d059c103ed89a74U,
  0xbecca89e3e84a0f3U, 0x3e84d49e3e4e8226U, 0xbe1e4665be920fceU, 0x3e613308be6a414dU,
  0x3ef2f5243e3fe7fdU, 0xbd90197f3e679b76U, 0xbe99d7b53e7408f8U, 0x3eac92b23e204adaU,
  0xbe92ee35bdfdf846U, 0xbea268eabe32d2fcU, 0xbe160aea3c5643d3U, 0x3d9ad2ecbe8f33d5U,
  0xbe5821b8be2b4363U, 0xbe0dbdbb3e0d1f65U, 0xbe86ea54be56e7feU, 0xbeb3a42b3e72c58aU,
  0xbe857881be997760U, 0x3ea1896abf0236bdU, 0x3e91ccde3e4fc61bU, 0xbdd705263e976771U,
  0x3d1d997abe25f9ffU, 0x3e1cc7003e8afe5eU, 0xbed92367bebb30ccU, 0xbd83626e3e4345eeU,
  0xbea427d7bed4020fU, 0x3d893943be871a5aU, 0xbd9e4bcd3e98f7a4U, 0x3e05e08f3e9bce7eU,
  0x3e0d5b5cbe862ec8U, 0x3d763794bc1d72a8U, 0xbe88a32abe9f8de8U, 0x3cb1b06dbdd8a424U,
  0xbeee0305bea4fde7U, 0xbd22f41ebf090affU, 0xbcece8153d9f89eaU, 0xbe27aecdbd462909U,
  0xbe1a57fbbe43df1bU, 0xbe1dfd9cbeea19fbU, 0x3e6ea6303e1206d6U, 0x3f02ce4fbe66f469U,
  0x3e2b0cdb3ec42b95U, 0xbe542e8abe097c43U, 0x3e8121103e99d4f7U, 0xbdad5045be086e08U,
  0x3c3399a6be2b7765U, 0xbe529fcabdce48caU, 0x3eac43733c2e9f33U, 0x3e8e3dbabeb28891U,
  0x3dff68503eab01cdU, 0x3dcbce2fbe5a1632U, 0x3de9225c3c4ac3baU, 0x3e353077be196b0eU,
  0x3e8e71ee3e72f681U, 0x3e9827b53ecd8bf1U, 0x3eed00c43f076e11U, 0x3d69d3e43dcb8872U,
  0x3e6439b73eb49b24U, 0x3e42bd873e91ebb3U, 0x3d809e8b3e2414f0U, 0xbe4ec4d63e0191e7U,
  0xbdbf848ebe2965caU, 0x3e492dc2bd45c01aU, 0xbdd13a43bdd04d1eU, 0xbe87b6cd3e79d649U,
  0xbd8a1718bd1aea87U, 0x3da5b24d3e31073bU, 0xbe561974be64ed56U, 0x3ea8d419bcac286eU,
  0xbe5af22e3e5c8266U, 0xbd112a153eb06224U, 0xbeb4cd86be6dd1f0U, 0xbe0afed1bc42ac84U,
  0xbe3eaba43e176d5fU, 0x3eaeda34bdb14b1cU, 0x3ccf79f6beb1a40aU, 0x3def470dbee4cb3aU,
  0xbe9b92acbe4a03abU, 0x3c8294a539b422a9U, 0x3ae4d254beaa3a4fU, 0xbe2b8b54be92070aU,
  0xbcfd82a2bc89cfc4U, 0xbdb8575abd2c4a52U, 0xbd29ff3fbec9fec8U, 0xbdc937cdbd0ed755U,
  0x3ca080dfbdd1b062U, 0xbd146bc0bcdb20b5U, 0x3e08fa7bbdaef424U, 0x3d4ca623be6a2306U,
  0x3dc776943e471eddU, 0x3ebbfe2a3cd10ffeU, 0x3e2e28db3f0d1567U, 0x3e04ef623e6f47d0U,
  0x3de8af9e3e3932d9U, 0x3eeaba203da1d0edU, 0x3e56da483f1ae8c3U, 0xbdb3a5713e7ba7fdU,
  0x3e42c3763e5f91fdU, 0x3ee7125c3b440887U, 0xbcca32383eda3308U, 0x3b3e5fed3ecc2641U,
  0x3e8bf31e3e65047fU, 0x3f361dca3d9bcfb8U, 0x3d8b8d733ec17050U, 0x3e1432683d8cdad6U,
  0x3e8322713d15cf2aU, 0x3ef5e5543dda552dU, 0x3ca2f2333e99b910U, 0xbb9864f83e969397U,
  0x3d8b92043d9ab0f3U, 0x3ec064503e16b426U, 0x3d1d1e463ed849b1U, 0x3dd902873f19a3aeU,
  0x3e004fa6bdba677fU, 0x3f152f543e182e54U, 0x3e41c4083ef1d85eU, 0xbd80be683e93286cU,
  0x3e0511b03e5bf25bU, 0x3eea08f33d613029U, 0x3e649d703e7e688eU, 0x3df6841f3ecd93afU,
  0x3e27ad2a3e31ae1cU, 0x3f1bc5323e21e3caU, 0x3d0703c23e078957U, 0xbd92cb9e3ee8cfccU,
  0x3e54a7303d8627e7U, 0x3efe62003c9630b4U, 0xbd9f2abd3ef3d45cU, 0x3e03931f3e968e0eU,
  0x3e31e83c3e5b1fa7U, 0x3edeb75bbc72b845U, 0x3e43442b3ee28df3U, 0x3dced76f3eaec7a3U,
  0x3e8fa4913e70fb00U, 0x3f239fd43e1cb161U, 0x3dd06e7e3ee80f85U, 0x3d86525b3dd1c65eU,
  0x3e25992d3e420512U, 0x3f152d0d3e0cbec6U, 0x3d7b9bd23e8ae41aU, 0x3d84c6753e4bc70bU,
  0x3e92c6fc3e969f88U, 0x3ea30d60bd156cdaU, 0x3c879bdf3f03848bU, 0xbd6ba8a23ea271fbU,
  0xbc3585c13d910fc7U, 0x3ebb9c51bcf7bd63U, 0x3e14ddf43f120fa1U, 0xbd16e6bb3e304e33U,
  0x3e353dd03e5f38eeU, 0x3e27453d3d0351b0U, 0x3e55f5033eb46163U, 0x3ddb9da33d278513U,
  0x3d7c08783e51fc72U, 0x3ecad38c3e2f8c19U, 0xbd7f6d953ed74ee1U, 0x3de3e6013e2d2f01U,
  0xbd18c2933e72f33cU, 0x3ebacc9fbb9ac513U, 0x3e0bdd3d3eb639fbU, 0xbd5641873ddae5b3U,
  0x3e11e4013e3dcc88U, 0x3ef848c63bd034feU, 0xbd9cf4a63eea0b4eU, 0xbdfcbbb63ea22a24U,
  0x3e6e00cb3e525d44U, 0x3eadf5633ddd0144U, 0x3d9b2c9e3e5230feU, 0x3c256b473e625debU,
  0x3e5833ee3d527dabU, 0x3f2f6ad43dbd0e8cU, 0x3dea31c13ed4598aU, 0x3da6bb2c3e8aadacU,
  0x3e5e3cd03dca0361U, 0x3f736f553c516980U, 0x3d207b563e750e97U, 0x3db4dac93f0ae7a6U,
  0x3e9402a2beba0143U, 0x3d1564c33e704151U, 0xbdcd826b3d0e92ccU, 0x3ddb2e6fbe16d0cfU,
  0x3e674a723cbb5a72U, 0x3b7a34793e3edd8dU, 0xbe507456bda09b70U, 0xbe26fe9b3c24e1f4U,
  0x3ef42838bdfba849U, 0xbe6cb2d13e40ec3cU, 0xbf024810bcb7df12U, 0xbd88bbcbbc8482b5U,
  0x3ece3aaebb06ebd1U, 0xbdab7e713eb44e0dU, 0xbed28f98bcda42b8U, 0xbd12dcb3be0535b9U,
  0x3daa3985bdcce076U, 0x3d84acb33e8bcbf5U, 0xbeef1fb9bd9440aaU, 0xbd8f45e7bc796e98U,
  0x3df55670be44398dU, 0xbdddabf33e473f9dU, 0xbeb2e95fbac1c7c5U, 0xbe3cfc513e2e00d6U,
  0x3ea0c239be163fbaU, 0xbd7b65863e569368U, 0xbe8434a63ccf4611U, 0xbdc5d198bd1f8139U,
  0x3eb30428be49868dU, 0x3c9abdb53d05f024U, 0xbe26d48ebd1b1b59U, 0x3df4162ebddef5f6U,
  0x3ec7dbf3be468ee8U, 0x3d9327be3e6fd08aU, 0xbe4f7afe3d8a55dbU, 0x3d663f54bca79f2eU,
  0x3e13e546be966af5U, 0x3dda8ce03e4f9566U, 0xbdb250acbd8ccf2cU, 0xbd40c5e3bb936f65U,
  0x3e57303bbe4bd47bU, 0x3c5d186f3eac06e4U, 0xbd7773763d5ec6e7U, 0xbdd1fa163dcb673cU,
  0x3de5e65dbe0728fbU, 0xbda052c13e19d5c1U, 0xbd8fe44b3d938445U, 0x3db68708bdce5bf9U,
  0x3ebfa062be4187acU, 0xbd6dc5823ea53b0dU, 0xbe6721573e133864U, 0xbdf00f72bd47cf1fU,
  0x3ed9bbd8be5150e9U, 0xbdd2f6ac3e832799U, 0xbe18d16b3d6760f6U, 0x3d631cd3be3fa481U,
  0x3e6f3988be627778U, 0xbc22bda23e7de0b3U, 0xbec4ae87bc13814eU, 0x3c65d481bc98fa55U,
  0x3eb7bbf1bc84b5aeU, 0xbe58cbd03e82b9d0U, 0xbf017eaa3d2e4646U, 0xbd90030e3d947b3aU,
  0x3dfe7a48be3a42c3U, 0xbe1dafeb3ec3f515U, 0xbe5c4bb3bd64f348U, 0xbe0aacdfba93c882U,
  0x3dd1be93be160b8aU, 0xbdf856053e7120d5U, 0xbef4cac7bbc3a11eU, 0xbd6c85663dc55111U,
  0x3e0ca0a9be073137U, 0x3dc588083e3ab0faU, 0xbe87aba1bd060551U, 0xbdd5f9a43e173a78U,
  0x3e4b4e40bd9106fbU, 0xbe2ee7633e340a98U, 0xbf1123d13d35fc20U, 0x3de385873df1afeeU,
  0x3e2d5dacbe82321eU, 0x3dd5c8df3ec2fd31U, 0xbeb6f3c4be13a897U, 0xbc8b3fce3bdb1294U,
  0x3e0d19cabe1615dfU, 0x3d4d291e3de8d99cU, 0xbed27de63b0b5ae5U, 0xbbfb79923d5354eeU,
  0x3e749bb83d2ca0b7U, 0x3eb681143dda78c2U, 0x3e2ebbce3eace5a1U, 0x3d5c4c383eaded75U,
  0x3d34a1043e5a012cU, 0x3edd6d4e3d972c8cU, 0xbd003fa53ef7c21cU, 0x3cb1ab2b3e8d1828U,
  0x3e7aaa723d614217U, 0x3e9077a8bd3a2d49U, 0x3e4ab3143ea7251eU, 0x3d3e2e4b3da00351U,
  0x3e6180813e7d921aU, 0x3f0fbad03de0178eU, 0x3e2c41e83e9ada28U, 0x3e01e72e3e4f2a59U,
  0x3d560fbe3e35553cU, 0x3f248a9d3d22ffc7U, 0x3e4299f23e51a1e7U, 0x3cf473003ed66357U,
  0x3e7da8b2bd85bf3fU, 0x3e822d81bbd71cf3U, 0x3e35b9663ec13a45U, 0x3bc5be3d3ebc24afU,
  0x3e1d90083dec1a10U, 0x3f106ee83e08421dU, 0x3e28ad5b3ed7f63cU, 0xbcc62c523eb67c4fU,
  0x3e6ec0d73ce1a693U, 0x3f057d3c3d0cbefaU, 0x3be820883ec4b82fU, 0xbd13a5963e691039U,
  0x3d1239a43e514257U, 0x3f21c50a3e0dea32U, 0x3da6c9fb3e9878b3U, 0xbd2b2c103f141cbbU,
  0x3e5504e43d6900a6U, 0x3ef689fcbd7c3026U, 0xbd9e99303ed85dedU, 0x3d9844b33ef248e3U,
  0x3e1311f53de8ba1aU, 0x3ea1f7ef3e19cb5bU, 0x3e2aeb4a3f0ec858U, 0xbd32dbdf3ebd8dd5U,
  0x3e60848c3e772be9U, 0x3f122cd43c25b372U, 0xbd1f84ef3efd74d0U, 0x3d8dff0f3eabf099U,
  0x3de9028c3dd46925U, 0x3f0931963dff2e32U, 0x3e1847513e544eb2U, 0xbe087dfb3e1ac757U,
  0x3e83b7e63d535b93U, 0x3edd5d333a8bc8c0U, 0x3dbb10cd3f005765U, 0x3d9af7083e96aafeU,
  0xbde79e8a3dd33f31U, 0x3e0f93703e1f63e4U, 0xbcd3deb03efa0463U, 0x3dabdf933eb4ff98U,
  0x3dd15cdf3e90ab10U, 0x3e30007c3df00a63U, 0x3cc51b063ebefcd3U, 0x3dafee1ebdc1a162U,
  0x3dad74313e8be9e8U, 0x3e532e203d6a4f0fU, 0x3df3d2533ebcdbb6U, 0x3e0f5c1e3d9ec3caU,
  0x3de325b03d8671aeU, 0x3e99271e3e06ca6cU, 0xbdb15fc53d47dd36U, 0x3d003a70bce1864eU,
  0x3db47eaf3e113558U, 0x3ec692d03b89ad0eU, 0xbc2816383e797a0eU, 0xbdbc137d3e80bf38U,
  0x3ca524c63e44339cU, 0x3e6cae793d8b3691U, 0xbdb1b7883e6960faU, 0x3df61cb83e96dc30U,
  0x3e56a8833e9e4c28U, 0x3f2c2f41bd841465U, 0x3e11f69a3ec8d13eU, 0x3e00931c3f04e41fU,
  0x3e1d77eb3e51cf06U, 0x3f66b6c4bcee76cdU, 0x3df43b2b3e8a33ccU, 0xbdf76eaf3f285bb5U,
  0xbcc8cf38bd8445bfU, 0x3e9819bbbdd0cf1dU, 0x3cff88ec3eafbcb3U, 0xbd98ea163e7f10c6U,
  0x3dd0090fbc352e63U, 0x3e910cd23bd03d4aU, 0x3e52dd633f0c7516U, 0xbd1d6b3a3e93762bU,
  0x3daacf7c3df690f8U, 0x3e9f7a173d2c25fbU, 0xbd7e5fbe3ebb26daU, 0xbcb6555f3d8cbdd6U,
  0x3b7474923e723d65U, 0x3f26859fbde1e5aeU, 0x3da7ea1a3e47bfadU, 0xbb18a7423e309023U,
  0x3dbf23ffbe02fc69U, 0x3eb9e17d3e11b12fU, 0x3e2d81a33eef11beU, 0x3d4348413eab9f1bU,
  0x3e7650e53d630eb9U, 0x3ecc47223e273bf1U, 0x3db18eb53e8e68c5U, 0x3d69f3453eb4c1ecU,
  0x3de65e87bdb9937bU, 0x3ef65b173d122f50U, 0x3c955f193ea81794U, 0x3dc8d5a53de8793bU,
  0x3ea3b2ee3da2ca2aU, 0x3ecab9c23e0d502eU, 0x3c89e2593ebe6be3U, 0x3d33d5403ebe8b52U,
  0x3e9276553e263443U, 0x3f4ad9fb3ceb40b6U, 0x3d54d3013e366283U, 0x3e1295da3ee489e8U,
  0x3d6baf693e8dedbfU, 0x3f270c323e0af92eU, 0x3e196c343ebb2e3dU, 0xbd514a9b3f09518bU,
  0x3e042bd63e659119U, 0x3edcdcda3dec1062U, 0x3e290c0e3ed151a7U, 0xbd45b1c73e7fa495U,
  0xbc64a3943e45346aU, 0x3ea927593da9a263U, 0x3e492b183f0752d0U, 0x3c9a48c23e6ec3b4U,
  0x3e04841c3e405190U, 0x3ec8c1b83e04d883U, 0xbd16e4a73e85171aU, 0x3da988ca3dfef5e1U,
  0x3dd8fd813e24b9ddU, 0x3ead94b4bcae0fa6U, 0xbd00aed53e946022U, 0xbd749fb73dde943aU,
  0xbd9aa9883e9a034dU, 0x3e091e7cbd0e11f4U, 0xbd0c35fd3ea85222U, 0x3da0d7b33e3a1852U,
  0xbd22db413ea043b6U, 0x3e40e80f3e2802b2U, 0x3e4cea5f3e1672bdU, 0x3d4441d5bd519d45U,
  0x3cbbca5e3ea616f1U, 0x3eb7f3f43d84014cU, 0x3def50b73e853ed6U, 0x3ca7eab13c2410acU,
  0xbc5d44083da0ad15U, 0x3e5bbc50bd58d763U, 0x3d4ab8b73e9b528bU, 0x3ddb76793d65bfd2U,
  0x3d8e80c73d47a011U, 0x3ec34c543a9c9b2cU, 0xbbf9980b3ea3521cU, 0xbde4e3373eabeb9eU,
  0x3e215cd83cf8f5aaU, 0x3e689cfa3e094fd2U, 0x3dd4096f3ca3860fU, 0x3cb90eb83e0b85e8U,
  0x3e8ebd933e7a9045U, 0x3ef6738e3df234ccU, 0xbc4133193e62e7feU, 0x3c8a02153e6bcdbcU,
  0x3dd345333e0c75fbU, 0x3f2da8d03d1ce2d2U, 0xbd5fcb563ea4ce1fU, 0x3c3c83f63f1509d2U,
  0xbeaa04cf3e8bb910U, 0x3c3281cc3e48f679U, 0xbed97bcb3dbd6eb9U, 0xbf011158bb3b6946U,
  0xbea5b7563e8aaa48U, 0x3e9beea93e1672e5U, 0xbe8ac947bd579327U, 0xbf33604d3e28c2efU,
  0xbe461a063e1655f8U, 0x3e68170b3e3d0272U, 0xbe3fe741bdfb6601U, 0xbf0f04433df8b6b9U,
  0xbe0b8236bbba0de7U, 0x3e8f6e5a3d5a7d4bU, 0xbdd6c550bd062b3fU, 0xbf129a3d3eabe031U,
  0x3d6687093e038ab6U, 0x3c45bca03e352b7aU, 0xbe8a7e91be524206U, 0xbf20c4bc3e842975U,
  0x3e09ffb6bd454eb5U, 0x3e2d0f8c3c8fbfe9U, 0xbea512e13ded133cU, 0xbeacd6bb3d5260c1U,
  0x3e0455fcbc0773eeU, 0x3e1ef0563dcff138U, 0xbe8c14f53e597cd8U, 0xbf2ad7fc3e294135U,
  0x3cc04d57bbc2647cU, 0x3e366b703d827ccaU, 0xbe4885453e4288acU, 0xbf01293b3e05394aU,
  0x3d421f8e3d1992bdU, 0x3dc4f12f3d9474bdU, 0xbeedaae8bd549d72U, 0xbeb215913e6e65feU,
  0xbdff429cbc3412efU, 0x3e82b77f3e6c8ddfU, 0xbe75c07a3e3c038fU, 0xbf1c0a4b3ed35f19U,
  0xbebf22ac3e83ffe6U, 0x3d4ebb4bbd51d1b5U, 0xbe7eff653e2661e8U, 0xbe9d703d3dd84087U,
  0xbe51e46e3dd17d7bU, 0xbc87d2143e3c362dU, 0xbe82f41f3e09d2e7U, 0xbf05ef913d249688U,
  0xbe12d8c1bc0164ccU, 0x3d8d4ca23e1c927dU, 0xbe649e663e1a3acaU, 0xbe4aedf23e2b2b59U,
  0xbea3a4b2bdee26a6U, 0x3ec850063e444308U, 0xbeb76de13c641a10U, 0xbf09b80f3e65773aU,
  0xbe0e6bdebd69189aU, 0x3e7dd081bcb1794dU, 0xbe5175d4bdc1f583U, 0xbf1220453db35f92U,
  0xbdd116fbbe039cebU, 0x3e7512753e279124U, 0xbe3709e73e1557e1U, 0xbeede54d3dcb52c9U,
  0xbe4a486bbdee51caU, 0x3a4cc20bbd403776U, 0xbeb4749d3d5167fbU, 0xbede1f553d028939U,
  0x3c9cc7fa3da69061U, 0x3c2225b93e290e1bU, 0xbda90c33bd1d9ca7U, 0xbe8bccedbca0bfe6U,
  0x3cb282fcbd3d173cU, 0x3e5667053da66d1eU, 0xbd1f70f53da39c4eU, 0xbeb422233dbd7c17U,
  0xbe1281e3bd5c2842U, 0x3e9b220c3ce8dd94U, 0xbea3de443e758407U, 0xbf0a15843e7f5e94U,
  0xbf00c5013cb866aaU, 0x3e07594b3df9cdb4U, 0xbe275dcf3ede441fU, 0xbecfc4243d809614U,
  0xbf0a59f6bd30b423U, 0xbcd444773e19107dU, 0xbdfa8fa13e4f1875U, 0xbebf5d9b3e534ad3U,
  0xbdfdf77d3ce3be52U, 0x3e60013ebe0747daU, 0x3ca71bd83e84c9adU, 0xbda2d70d3db80d9fU,
  0xbdda55963d9aa048U, 0x3e8d69343d20c60aU, 0xbd45c7e63e63af59U, 0xbdf6dd413d3df56eU,
  0xbde87fa0bda9a929U, 0x3e26c894bcedc700U, 0xbd80d2993d7dd07dU, 0xbe3e570f3d24aeebU,
  0x3d9143babc86317bU, 0x3e3f565f3d14bbc7U, 0xbd1c59653caa12abU, 0xbe4f93be3e949727U,
  0x3d0f5071bd652763U, 0x3e975d4dbb5795c4U, 0xbe1cfca63d8e2497U, 0xbe2c19443e8303acU,
  0x3d9be649bda25f10U, 0x3c3190923d32ab8eU, 0x3d4d5c693dc98424U, 0xbd4ee6e23df4200dU,
  0xbde467a73e80e515U, 0x3e201c9a3d3e3958U, 0xbe3504b33e79006dU, 0xbe17f22f3e268e6aU,
  0xbe2a6e203e380fa7U, 0x3da8bb5f3e12dd13U, 0x3cbfb322bbcc0c84U, 0xbe94b5a23e27cf46U,
  0x3d46c9d33e015b9aU, 0x3e82d3fa3dfb6b7eU, 0xbe33311ebcf5b3f3U, 0x3d8ed1983da2104fU,
  0xbc916a91bdd32e48U, 0x3e8710023c045078U, 0xbd8f63583c811bc8U, 0xbe47d3ab3dc49bb0U,
  0x3defbb883de317d1U, 0xb9e4ec523d970588U, 0xbe4df79abc58907dU, 0xbd88f8263e0ed754U,
  0xbbcbb75a3d8cf50bU, 0x3a04ebc33e149e52U, 0xbe337eb03d843a4cU, 0xbdec92ed3dfc0724U,
  0x3ccf9ba13e92f6d7U, 0x3e5ade513ddc5eb6U, 0xbd2898583e0455cdU, 0xbe67dfdb3e5b5f36U,
  0x3d05eff03e634fe6U, 0xbd436fea3d9f1649U, 0xbe3399fc3e7aceceU, 0xbe1cf9053e847af1U,
  0xbe90273a3db8d74dU, 0x3dbdc3663b74641eU, 0xbe04588b3e8b953fU, 0xbe92cd363e282711U,
  0xbe28cba53e871efbU, 0x3e2b7cd9bd2648dbU, 0xbe0d083e3db4ac00U, 0xbdf600e93e70b4aeU,
  0xbcfef57bbd05fad8U, 0x3e039434bcec1fe2U, 0xbe9c899b3d0f7b2bU, 0xbe301d613e5cb461U,
  0xbd87f69b3e3428f5U, 0x3e74fb8c3dbc19baU, 0xbd36583f3d64bf7eU, 0xbe20aedc3e39fa65U,
  0xbdcd4a9ebd2c522aU, 0x3e2c9538bd5a04b6U, 0xbe92d9213e11e914U, 0x3c821a473e1045a6U,
  0x3ba13e7a3e47b76aU, 0x3d03f2fd3d4b1a43U, 0xbe177207be8317a3U, 0xbd5317593e1326eaU,
  0xbd8b08833e93620cU, 0x3e8560a2be23a374U, 0x3dd0e76dbde00c19U, 0x3b76116b3d2424f5U,
  0x3e279c253e865fd6U, 0x3e944d4a3d92040eU, 0xbe5529bc3dbfef1cU, 0xbd607f003e017944U,
  0x3d966b953e563bcbU, 0x3e5ab29d3d0d3cadU, 0xbd1149cd3ec04047U, 0x3dad3ae83e9eca17U,
  0x3e482f6a3d7d9e78U, 0x3e96cf763e247b76U, 0x3d8300a63e57cb3dU, 0x3dba14713e80380cU,
  0xbd5ba8323e0ec29cU, 0x3e7c84763dffe4bcU, 0xbcd93a7e3e3197e5U, 0x3daf9b613e1b34d3U,
  0xbd8758443e538588U, 0x3ead85a83d7aa6acU, 0xbd8077c03e48968fU, 0xbbf6ff8d3eaa801eU,
  0xbd0db6d33e652d14U, 0x3e63bb4c3e1df93cU, 0x3d4c37823ddfc33dU, 0x3ce2468a3ead4134U,
  0x3e4e4b38bdbdbf9cU, 0x3dc1a5183e424b89U, 0xbd9e5f423e886968U, 0x3da3d4af3ef4b86eU,
  0x3de9af2e3c24fab3U, 0x3e758ed73d73ba12U, 0x3e1466b63e98846cU, 0xbd58a14d3ea0a357U,
  0x3e0036283e27510aU, 0x3e81680d3da0d00cU, 0x3c17dac03e147d47U, 0x3d88b72c3f04afa4U,
  0xbdca0ec53c3a66e8U, 0x3eff969a3de7c7e0U, 0x3e37482d3df8c414U, 0x3e18bb5d3f2c5ea8U,
  0x3cf9a3243ddf4641U, 0x3e94fbb8bc7e7133U, 0x3e07bc9c3ecb3b9fU, 0xbb079cd43f0d0ef3U,
  0x3e22fe643e87d3e0U, 0x3d9dbf4abd6b20f8U, 0x3e0ab2c83eafad59U, 0xbd4e82c13ef74fcfU,
  0x3d62a8ff3e06e355U, 0x3e083a22bab12c56U, 0x3dcb47bf3eb4923cU, 0x3cc842b43eafa2c5U,
  0x3e1be0373e7a5ddfU, 0x3e8f9690bc58d223U, 0x3d60c6753e42181bU, 0x3c3185693ecde296U,
  0x3d84b12b3ea4bb4cU, 0x3e74fc1c3e49190eU, 0x3e34f6f33ec0787aU, 0xbcb5cf9b3f0d52f1U,
  0xbbb0f0d03df020a8U, 0xbdf3c6ddbd1f115fU, 0xbd8ed45f3e62a09dU, 0x3cba66fd3eb1cec8U,
  0x3daa44553dad6b3eU, 0x3bbadb363de65b83U, 0x3d98a72d3c932944U, 0x3cacee033db5cd9eU,
  0x3e2806a53d1d747cU, 0x3d3daba73ddb9641U, 0x3df116913e55756dU, 0xbbe0be1c3e7d0f0bU,
  0x3c90a7fd3ea6bf4fU, 0xbb532a4a3dca6153U, 0x3e013da23e6ea040U, 0x3e1939f73e05490bU,
  0x3cca96923e11b302U, 0x3ee31f6dbdb996c6U, 0x3e21ef693d8b9d03U, 0xbd70c2643ec8cecaU,
  0xbd80e3b03e8e8673U, 0x3e20397ebd9e8a3bU, 0x3e049fbbbe1c29f8U, 0x39b4eebb3efec0f1U,
  0x3d4da8473eabf135U, 0x3edd46533e154412U, 0xbcaf59283e915a8cU, 0x3dba75db3eeac2adU,
  0x3e16f0ff3e76eb9bU, 0x3f2e901a3dbde36eU, 0x3d205c953eacdf55U, 0x3dcc5b693f17f6e2U,
  0xbec500f0be3f358bU, 0xbe99a82b3aaf8698U, 0x3e07cbc1bf1bef8aU, 0x3dfa48f2be9934bdU,
  0xbea66a4abe591a53U, 0xbd6e920d3c132c47U, 0x3db4e0d0bf3c778fU, 0x3d21e656bdeca266U,
  0xbe9a375abe548277U, 0xbe5fde9f3d233bf4U, 0x3dfa740cbf0d7d50U, 0x3e12510bbe929eeeU,
  0xbe6d391bbd49206aU, 0xbf267907bc48dc41U, 0x3d16b3cebebc796fU, 0x3d9a4be4be70ed18U,
  0xbee0658dbe15e5efU, 0xbf1885743e0b2456U, 0x3deabd1cbf164d47U, 0x3e1e89c5becfcb3aU,
  0xbdc06039be1a447cU, 0xbe99277c3d662bb9U, 0x3da900cebf0dd4d0U, 0x3e6ff186bef212b8U,
  0xbddc65cebce67adfU, 0xbe70a9afbd8bb7dcU, 0xbd49979bbecff3a6U, 0x3e434e82bee64aacU,
  0xbeb23089be59c120U, 0xbebae01b3e08b314U, 0x3daf1506bed43f63U, 0x3a9ebb3fbeabae29U,
  0xbea657fbbe6daaa0U, 0xbf1ac68e3dea438eU, 0x3d378b9dbe93b2bbU, 0x3e42b4c0bf24b215U,
  0xbe51524cbe21ce7fU, 0xbf0ef9393e3a63a8U, 0xbc991de1bec4d0e8U, 0x3d50ef64bf214262U,
  0xbedb0ecebe01352bU, 0xbe8ac5a83d189abdU, 0x3d5bf53abf15ed49U, 0x3db1445cbeeb57fbU,
  0xbec04171beaae9eeU, 0xbe9a371bbc8fb182U, 0x3d6bfd7dbef299eeU, 0x3e41db3fbe46255fU,
  0xbe33a16abea9c034U, 0xbecab6f93db351a9U, 0xbde6cb36be7622f4U, 0x3e3a7a8dbec15cebU,
  0xbe61dc3cbee000ebU, 0xbe49f092bdc75683U, 0x3cfac4d2be86e5f2U, 0x3e0096a4bef1c458U,
  0xbecf9ed3be482b7bU, 0xbcc944d93d6527e1U, 0x3e33ff46beec88f3U, 0x3d2de71ebe120625U,
  0xbd8a1645bebd00c8U, 0xbe8ad53fbd7b26b8U, 0xbc11ae72beae988bU, 0xbdd868f9bd65d07fU,
  0xbe2285eabe28fa9aU, 0xbee197ffbd8e9921U, 0x3e57029abe8fab8fU, 0x3cbc4273be83b39fU,
  0xbcf9ca81bee86b6aU, 0xbeaf80743d70f702U, 0x3de77f3fbe1c348cU, 0xbcafb374be4653b5U,
  0xbd9829e9be1d1d0eU, 0xbf034cca3cc42f30U, 0x3e42710abf1b32baU, 0x3a7778f4becd840cU,
  0xbda34349be9acba7U, 0xbebedcd83d8c221eU, 0x3cfb74a2be50550bU, 0x3e45de46be9bf038U,
  0xbea1aae3be172ab3U, 0xbf2ed3fcbd54c195U, 0x3d4873b0bf03a8f8U, 0x3cf26e86beed49caU,
  0xbeb7e724be822b12U, 0xbf43560e3d9fb2ecU, 0xbd67ca24be83ab76U, 0x3ce63acfbf13801eU,
  0xbe8c012c3e2bc1d5U, 0x3dd6ac31bd755068U, 0xbe493bf83e79e2ccU, 0xbed525103e4c694dU,
  0xbeaf0eebbc8a85c8U, 0x3ea3b67d3e2d72b8U, 0xbe001d783d5ed0a4U, 0xbed763f63e6689f0U,
  0xbe80102d3d5700e6U, 0x3e383505bd9d6815U, 0x3d1cec653d22bdcaU, 0xbee45f773e873122U,
  0xbd51e7cc3e302f00U, 0x3e1505ed3d981957U, 0xbe1447213e69d97eU, 0xbecddfcb3eb3403eU,
  0xbd627ad2bce8a07eU, 0x3dc40aab3ddd3621U, 0xbdef4c543d30fa74U, 0xbe95b5dc3ea9d267U,
  0xbe927320bda54740U, 0x3e2e3493bbdaf75eU, 0xbdc5077ebbee0568U, 0xbea257363e4d9510U,
  0xbeb781d23e2d952dU, 0x3cd11350bd6dfc04U, 0xbdc6cc223df7fb78U, 0xbed19de33e92f87aU,
  0xbed374adbb921777U, 0x3df882533e8c49fcU, 0xbdd268143e869ce2U, 0xbee47c693e981f02U,
  0xbe9723363e271de7U, 0x3e9893e33b15ff32U, 0xbeacd5733d307f31U, 0xbe9645893e8495e8U,
  0xbe2e7acd3bde843dU, 0x3e024ac63d67fea2U, 0xbe18e4573e689209U, 0xbe9824893e093e17U,
  0xbdc6681c3c2fddc4U, 0x3d847c5e3e16261fU, 0xbdb84bf23e056ae4U, 0xbe7444b43e99c60aU,
  0xbee010a63e2133e4U, 0x3ea1f8953ce78477U, 0xbe1ec33b3e6c0a04U, 0xbe1fd8a03dba87e0U,
  0xbe70467c3d8168acU, 0x3c8dba4ebcf0c37cU, 0xbe8fd5643e039dbeU, 0xbe9eb3cc3e85d97dU,
  0xbe9c8eb03dcbe94aU, 0x3e24e229bdab0d1aU, 0xbe2c1ab43d8d3490U, 0xbeb388843e16d920U,
  0xbe9da2c23d3bd8c6U, 0x3dce06753dbc9fa4U, 0xbe148c2c3e0ee0d3U, 0xbeb7cee23d7ea082U,
  0xbe30db1f3e2fbd47U, 0x3e2c71863d9f10d1U, 0xbe835e3c3e7606f3U, 0xbebbee6f3e0b0799U,
  0xbeef4f843d323410U, 0x3e6e43c33df68887U, 0xbe53d0773e839663U, 0xbe9c09b63ea25e47U,
  0xbedd23a83e354de3U, 0x3ea7ca943e069422U, 0xbe82b6a23da57284U, 0xbed7abc53e85e07bU,
  0xbec23512be2f6d75U, 0x3e967d43bcae09abU, 0xbdb609b73e0def1bU, 0xbee323e73dbed6daU,
  0xbdcf8e1fbdf544c5U, 0x3dcdd35f3d593278U, 0xbe523a39bd1274d4U, 0xbecef9a73e9590b2U,
  0xbf0b3281bd1d7f1fU, 0x3d78d3e5bdba39fbU, 0x3d086bc33d6fac00U, 0xbe8625663e868b2aU,
  0xbeb814f53e03df70U, 0x3e5c6126bcc00ec9U, 0xbbf2f90e3e588c5bU, 0xbe7ec8543e0717d3U,
  0xbe9c1f9b3b02c234U, 0x3d1599533e08b934U, 0xbeaf88ec3e8be9eaU, 0xbeb7f1463e80ed2aU,
  0xbedc958b3e0892acU, 0x3de7174b3e7ef4fbU, 0xbe010fa63e929152U, 0xbf07cfea3e276788U,
  0xbf1299093dbab69dU, 0x3e737eec3d0a4594U, 0xbd1df99b3dd67cdfU, 0xbf2ae7683e026d70U,
  0xbec937083ce1ae99U, 0x3ea9c0f83e5e5cc9U, 0xbe1bc67f3e118250U, 0xbec2a66f3e8517fdU,
  0xbc76d2963d01dd99U, 0x3e947cc73e8f7b6cU, 0xbec191503dfa7d5fU, 0xbee3752d3ea25e86U,
  0xbd74d0dc3e061297U, 0x3caafa353d3bdbb3U, 0xbe74a6a73d9c66f6U, 0xbedfab9e3e4f5c63U,
  0xbd45e27f3e637176U, 0x3e4da38a3c8ba542U, 0xbe1839683e467622U, 0xbf1a343b3e0676edU,
  0xbe8fd7943e1cca01U, 0x3e1fe8003e2fedcbU, 0xbe58c7ab3e73b1f0U, 0xbef3ad043e33441fU,
  0xbe9359f53dddb690U, 0x3e53ea9f3d29bcdcU, 0xbea20af53dc05d9fU, 0xbf04e73c3eb44a05U,
  0xbeb267543c0c7bfeU, 0x3dd9b3e73df21f6bU, 0xbe971c0a3e06518eU, 0xbef001ed3e25bf1fU,
  0xbeb0af943d9023b8U, 0x3e7e61e8bc046ddfU, 0xbe9e0e813e6bdbe0U, 0xbe86cdc23e993b84U,
  0xbf0afef2bd9221f5U, 0x3d85b5b43dcbff9eU, 0xbe20c3263e8b7aebU, 0xbec646d13e6ca88eU,
  0xbecffa9f3e012b33U, 0x3dbccee83e2fc64fU, 0xbeb63e4e3eb23eacU, 0xbedeb6093e91144bU,
  0xbe8bd67b3e342881U, 0x3e33f28c3e3750ecU, 0xbe471cab3dd3cb5bU, 0xbf0e73333e901917U,
  0xbbe856e5bbfe8d93U, 0x3eafe4393dea9ccdU, 0xbe4676e63e8baa1eU, 0xbf1482653e491ecdU,
  0x3ddfb6d13d82a4e0U, 0x3e2265863e3b879aU, 0xbea705d53bad113cU, 0xbec751693e8d3682U,
  0xbe17ab74bd8a0481U, 0x3e261afebc8b1f97U, 0xbe972fd23e13e027U, 0xbf054cdf3e58623cU,
  0x3d0aee1c3dc35264U, 0x3e9e4ecd3e3919caU, 0xbe98c91b3d5c57c1U, 0xbe8d7e853e4b134aU,
  0x3d929b7f3cdc3ebaU, 0x3ea250803de71625U, 0xbe01105e3e964f7bU, 0xbf199ac13ea26347U,
  0xbdcee625bd538135U, 0x3e44a3cb3dfeeaffU, 0xbe25981c3d72a195U, 0xbf0115f63dd4f9a0U,
  0xbecadb67bc6c38a2U, 0x3e36e620bb375b93U, 0xbe2c0b253e89d6e7U, 0xbeb86af53e8d6974U,
  0xbf0fadbf3da1133aU, 0x3d3519303e4996faU, 0xbe31fe683e700b30U, 0xbea78a263e753a09U,
  0x3e9f043dbd5394abU, 0x3dc06c5e3e2870b0U, 0xbd069ec03dc9589bU, 0xbd9b9577bc60c988U,
  0x3e4afd343e4e8337U, 0xbe11926c3df56035U, 0x3dad1a96bbf672cfU, 0xbce9ea383e43c5d2U,
  0x3ead9c49bc818eecU, 0x3de361acbcce0fa3U, 0xbe71efec3e15f330U, 0xbbe802e13be11435U,
  0x3df8036ebdbd31faU, 0x3e18c9c23e213f18U, 0xbe447a853e087a29U, 0x3d6ad3a3be246989U,
  0x3e85ce393bf77690U, 0x3dff512b3e1aaa1aU, 0xbe62fa75bdbc9b28U, 0xbe3b87cb3dca926bU,
  0x3e4ee0b93d069c2fU, 0x3c9e8bc93e04137fU, 0xbe8fbb8abd802ed1U, 0xbd7930c43e796625U,
  0x3df1ba0fbe52bff5U, 0x3d07a4f33c5677eeU, 0xbda8188e3e048a17U, 0xbd65b67dbdca225aU,
  0x3e608295bd7fa048U, 0xbdcf78563c9bb661U, 0xbe885b763d7d8d1eU, 0x3d86c216bdef5622U,
  0x3e93946abe432e8dU, 0x3e4e8e233e125acdU, 0x3c55abf1be0fa423U, 0x3c1b73b33de3c8f7U,
  0x3c9996f8bde0ccc2U, 0x3d27ddf83e470551U, 0x3c99717fbdbe33f7U, 0x3d42fbbc3e80f317U,
  0x3e1b7844bdc4306eU, 0xbd4f7b353e5005c2U, 0x3e1d9d853cc54877U, 0xbdd38c663e1d6a0bU,
  0x3d9c2f73bd89b509U, 0x3d3b905e3e51ef4aU, 0x3e300be23d94f470U, 0x3d1525393e095dabU,
  0x3d818680bd6ce48aU, 0x3e02eb333e211499U, 0x3e100cb23d697229U, 0xbd1a60e23d258b25U,
  0x3e9041463e8dd1f2U, 0xbe54b55a3deaef8bU, 0x3db4fcf83e0c3beaU, 0xbdef882a3bafece6U,
  0x3e3ab48d3e184bd9U, 0xbd77db373df72a5fU, 0xbcbea14cbbf906cdU, 0x3c1f75b03e0464a6U,
  0x3e0ab1253dc40115U, 0xbd83ea223e059fd6U, 0xbd61ea3b3dade238U, 0xbd7666ecbc4df53eU,
  0x3ea6e34b3e20cf93U, 0xbe2a41283e0ba6feU, 0xbe73f1843da08f66U, 0x3debe43c3e1be437U,
  0x3cc4c6d83c930a80U, 0x3b1f22f43d60aca8U, 0xbeb17eb0bdbd55c4U, 0x3c3f7162bd3ce9d7U,
  0x3e1c52633e292f3cU, 0x3b9d0e723e1dc920U, 0xbe69c8f6bd0ca58fU, 0xbb4710343e84c662U,
  0x3c47df7ebd9e0145U, 0xbdd7aef63a318facU, 0xbeb181fcbe82fadcU, 0x3dd279c03dd80c17U,
  0x3ecddcfd3dc294fcU, 0x3e3243f23e3ed830U, 0xbe9d0dcabdff5c6dU, 0xbe2bc00e3e21ee48U,
  0x3e0b7c3abdbc643fU, 0xbbd051d43d9d0ec4U, 0xbe6361473dd9c3ccU, 0xba8e94283e8f4880U,
  0xbd5456603dc520f5U, 0x3dbb32ba3dffb87aU, 0x3e0ece3dbe31134bU, 0xbc27f644be135f97U,
  0x3d21ca153d88151bU, 0x3cbcf1d33e0ebeb8U, 0x3e71de94be7956f4U, 0x3ddd6422bd159f0aU,
  0xbcca40303da47c7dU, 0xbd9fba093e27fb3dU, 0x3d85e52a3c975cbbU, 0x3e40e1cfbe2ee62aU,
  0xbbd20002bb5fbfa7U, 0x3bb02b5d3db36d44U, 0x3e8a27e4bc3d2706U, 0x3ccfd0efbe114571U,
  0xbdb2334e3d492943U, 0xbd7a40513d2e9c91U, 0x3e29e1343ceb2938U, 0x3de8b66bbe606b48U,
  0x3da162d53d9fd082U, 0xbda2d5843e6a3ae6U, 0x3e9ca67f3c36478fU, 0x3d64bb30bea0ca2fU,
  0x3daf2be2be0e1a91U, 0xbcc3d1a73e54baafU, 0x3e8865863d69210bU, 0xbd6ec0abbea3fd42U,
  0x3d36e3dc3da03883U, 0x3e0dcaf43e622193U, 0x3c3e1760be54c7e5U, 0x3d853a9abe029654U,
  0x3e21263bbe1b14daU, 0xbe116dfb3e042fceU, 0x3df33d693cbaa909U, 0xbc610ae1beb750f8U,
  0x3ce447b13cb339b0U, 0xbc84918f3cad9dfcU, 0x3e034f8bbe0e1382U, 0x3dcebaa8be8535f0U,
  0x3d8a2613be03fa71U, 0xbd095ada3e3f6c8dU, 0x3d5d106ebe49f91cU, 0x3e45419dbe8b2504U,
  0x3e28eab3bc5cd872U, 0x3cf4856a3e808a2eU, 0x3e8f20693c20283dU, 0xbc43ff3fbddcf01eU,
  0xbdb1cc103dd5d097U, 0x3ce48db53db0161cU, 0x3e003198bb6fa331U, 0x3e37e9eabe1d6271U,
  0xbd3933103cce848aU, 0x3d267b903e3cdeaaU, 0x3e16d8a1be04e0deU, 0x3d5c0307be68a15cU,
  0x3e3702a83dd6ba7fU, 0xbcfdd8a63d4a4a8dU, 0x3e2e5af5bda77e56U, 0x3e4ddf23bd014d85U,
  0x3e3fbbecbdfe98a9U, 0xbda59dad3e8997bbU, 0x3e09308a3b5e7dafU, 0xbe04b264bd082aefU,
  0x3e0a7b6abc9ccd40U, 0xbd1485d33e66fc2fU, 0x3e7c7381bcf58de6U, 0x3dd11b7cbe07dac9U,
  0x3e369e6ebe2f3ce2U, 0x3cde33103e4c76f1U, 0x3ea2884f3c73f650U, 0x3e33ffd6bb971e91U,
  0xbdd2a5153dcd8909U, 0xbe2ad5ac3e7bb8d3U, 0x3de07efcbc83f7c6U, 0x3de39f42be634dd6U,
  0xbd41ce11bd6bf50eU, 0xbe0a04bf3e00b72cU, 0x3e7439a33d71f5bdU, 0xbd95a220be6bb0d0U,
  0xbd8dc666be26ce72U, 0xbde688593e99c714U, 0x3d812ca13c7cae20U, 0xbcc5a813be9a2fd6U,
  0xbd55f323be1917a3U, 0xbbf2203d3dc61d07U, 0x3e993111bbe8dcc6U, 0x3d57b322beb68398U,
  0xbeabd69e3e1c1aa9U, 0xbf92741d3db9c4daU, 0x3da9d67bbf48f518U, 0x3dd00c00bdeb2a20U,
  0xbed2d93d3c95c04fU, 0xbf4088793e32f303U, 0x3e181cb8bf691e93U, 0xbdcfd840bec4b278U,
  0xbe9b7c08bd3072feU, 0xbf3e4d1f3d5c3956U, 0x3ddb7796bf2b7dbfU, 0xbd3f51c7be26691eU,
  0xbeaba625bde2f6a7U, 0xbf429e953dc7ec91U, 0x3ddc16b1bf21e14aU, 0xbe2554f6be2549b2U,
  0xbe8cbd5f3dc9bdfdU, 0xbf76bd203cf81addU, 0xbca3f956bf5f2b15U, 0x3b91b65bbe98259bU,
  0xbe3fe5f9be1759feU, 0xbf36991cbbc4ace7U, 0x3d69c7f1bf0014a1U, 0x3dd5a3dbbea321b3U,
  0xbe610fc8bd4ce71dU, 0xbf61c6b93ddb1cd4U, 0xbae9c856bf014330U, 0xbdd35361be44ad76U,
  0xbe2c82453ca5f316U, 0xbf52b5783d45ca96U, 0xbc6ecdffbf503d6eU, 0xbe0be4c4bed46b5dU,
  0xbe4474443dea7ab4U, 0xbf8e6ecb3dc28851U, 0x3debb490befd1c5bU, 0xbd96761cbf03cf12U,
  0xbe49c112be539454U, 0xbf978f583bdf4ec5U, 0xbc668b66bf39d3d3U, 0xbdb1a72dbf1c47ddU,
  0xbe61c30cbd58ba94U, 0xbf823275bc3cb2b4U, 0xbcb4763cbf57b484U, 0xbd1e1a57bf182e7dU,
  0xbe2b04c2bcb30b3aU, 0xbf471a2ebd8c104bU, 0x3d94dbd8bf8f0f8eU, 0x3e059907be7d86aaU,
  0xbe9554dbbe0cf246U, 0xbf6c93b2bce702ffU, 0x3cb1ec41bf8015a9U, 0xbd8b866cbeb4a7b4U,
  0xbe055b85be282040U, 0xbf9549f53da5be7eU, 0xbce84f17bf1677daU, 0xbd65b9c0be691016U,
  0xbe9dfdeebe2a1913U, 0xbf6dc4ae3e048df4U, 0x3e147d64bf4a369dU, 0x3d3dcab0befdf9f7U,
  0xbedb4227be4ac678U, 0xbf84381bbd02731eU, 0x3ddb1fc6bf200405U, 0x3d6e5043bd1f21bdU,
  0xbee385ddbe4c66fdU, 0xbf646ab9bbe26190U, 0x3e369f86bf54b538U, 0xbd27a729be8ff746U,
  0xbe9b02653c8c8837U, 0xbf449a31bbe3f31dU, 0x3abfcb82bf00bdcbU, 0xbd97a5e5bf0a44cdU,
  0xbeea9570bdb60e3aU, 0xbebe8b67bd128530U, 0xbc87cc0ebf571639U, 0x3dd6eb04bebdde94U,
  0xbea96dea3d4cb21dU, 0xbefd71c63dcd25f7U, 0x3e01c92ebf4b058aU, 0x3db5badabe52dc5eU,
  0xbe9ed2b23d6e403bU, 0xbf3aca8fbba56e06U, 0x3e16c31abf5c85b4U, 0xbcb731b3beda6cfcU,
  0xbf10c293bd88596fU, 0xbf69ad4f3d28f758U, 0x3d294824bed8722dU, 0x3d9054f0be70c6baU,
  0xbe3a79e13c99f3c0U, 0x3da8d00ebd79fd51U, 0xbe1da0903e2a1124U, 0xbeda56ea3e8d08adU,
  0xbebf2183bdc365edU, 0x3e6bed7f3dd24297U, 0xbdcd05233e157093U, 0xbed198c83e025a9cU,
  0xbebf0599bce5f232U, 0x3e11e0b83e1ece75U, 0x3d9e6d733daabfd4U, 0xbed8534a3e8cb2cdU,
  0xbe6a26c6bcc3135eU, 0xbbc644c5bc8a5e1fU, 0xbd8fb1883df2442aU, 0xbe5746793daa9a0dU,
  0xbd89d68abdabcfe3U, 0x3e4e0a043dea9e7bU, 0xbe97d5a33cb2226fU, 0xbe6509d13e2cc411U,
  0xbe9f4cd6be16a15eU, 0x3e0dc6523de735fdU, 0xbdabb0bc3e5894f2U, 0xbeaf8e633d5c7939U,
  0xbe374d3abd0d16f5U, 0x3cab5ff4be26df59U, 0x3d13b9c8bc894cf1U, 0xbe884fce3e3622a7U,
  0xbed38f253e1bb7e9U, 0x3deb6557bb655afcU, 0xbe4291de3e332e12U, 0xbee83f693e7c9caeU,
  0xbea642e73dd86e23U, 0x3dd10c603da717ddU, 0xbe3a6c313d39b519U, 0xbe4548c23eaf0ab7U,
  0xbe59cfd63dabd119U, 0x3d90dbe53e03efd6U, 0xbe1c65743d052cf9U, 0xbe8844e53dad3008U,
  0xbe0378d6bdb58f2cU, 0x3d8a91dbbb49de97U, 0xbe4c4f6a3d2f2f87U, 0xbe24cd323ecb7317U,
  0xbe1139083d7d7479U, 0x3dcb31493e542606U, 0xbdfdd6ca3d3b6718U, 0xbe6698493e5729d9U,
  0xbd9c83a53d6a422fU, 0xbdb6c85b3ddee6a8U, 0xbe4e958a3c87ec21U, 0xbe4ea6723dccdf27U,
  0xbe5dcc343d2155baU, 0x3e2823e7be0104d3U, 0xbdb96ebcbcfa2ef9U, 0xbe87fe7b3de047aeU,
  0xbeaf562bbd324576U, 0xbcb67897bd616215U, 0x3d63f40f3e0b9ec3U, 0xbe48164e3d3ffebaU,
  0xbea622063e34bdb0U, 0x3d8cfd48bd9e32a1U, 0xbe42f4b33bff67a9U, 0xbef313193e203b77U,
  0xbed788ea3d8c0dfaU, 0x3e75e4633ded17ecU, 0xbe7b348cbd003392U, 0xbdd9bf2c3e9524cdU,
  0xbebaa076bcc997c4U, 0x3c79e12a3de399c9U, 0xbda8f9a53e018511U, 0xbed961fe3e192af0U,
  0xbefc321ebdbac82cU, 0x3e01b710bd2b7ddcU, 0xbe1da5693d8a3e43U, 0xbea316e83e09ce2fU,
  0xbe56de50bcc60ad0U, 0x3d8dd0a7bdc4b8ccU, 0xbe6d18df3e52b9b2U, 0xbdb5d4ee3e0aa3e2U,
  0xbe9fedda3db30e0fU, 0x3e20fb8dbd2f71b3U, 0xbd24ec94bcd7c714U, 0xbea18f33bc0c6be4U,
  0xbf071109bdbdb436U, 0xbe0ad842bd843d3cU, 0xbe04a9443e5e57bbU, 0xbe29cf5e3e43743aU,
  0x3e961d4d3dc607f5U, 0x3e10eac03e8a1289U, 0x3e74ccfbbd1495adU, 0xbcb3cdfb3d1bb0e8U,
  0x3e6b5ecebd2dc10bU, 0x3e134aa73e62faf1U, 0x3e671afc3e15b909U, 0xbd40a63b3b8c9be6U,
  0x3ea4ddb7bb9213c7U, 0x3d9a56963dd47133U, 0x3d4078b73d88bd9aU, 0xbe17f213be485597U,
  0x3eadd002bde6678eU, 0x3d487bce3d4c43e7U, 0x3dc478e5bcb5633fU, 0xbd15e55fbd69c3f5U,
  0x3d37bec1bd7600b5U, 0x3d574af83d2cb020U, 0x3e5e887a3d65f042U, 0xba8d3a31be37d11dU,
  0x3d6ec2523e2c05e1U, 0x3e5c7da53e9e975fU, 0x3e98bba5bdf463adU, 0xbe824721bc565dffU,
  0x3ea8355d3df88243U, 0x3dbaaf7f3e2d4c89U, 0x3e9cdb39bccf4f37U, 0x3d8f2f1dbdf067cdU,
  0x3e40c99f3e405171U, 0x3e3c8f55bd492825U, 0x3e30b69bbc7cef95U, 0xbc5aaca2be75f9f5U,
  0x3eab99c33a97d7b0U, 0x3d9a75953e3b3a7dU, 0x3ee8e6a9bc86ea68U, 0xbdbf443abe0d96b2U,
  0x3e8818c33e6236f1U, 0x3df240e33e46fe8dU, 0x3ecf3c20bd452830U, 0xbd76c3b1bdb63927U,
  0x3ece10673dc854f4U, 0x3c195c2e3da6361aU, 0x3e274009bc331fd2U, 0xbe533f86bdc2f470U,
  0x3e80e2203e1cee3aU, 0x3dd692353d9bcf39U, 0x3e3543243e3724aeU, 0x3d5228f8bdf6e7caU,
  0x3e990145bd0f82e9U, 0x3cb7d0dc3e606bdeU, 0x3e9c630abd5e75fdU, 0xbd5fc64fbea6b2b7U,
  0x3e2a63e2bd814963U, 0x3e2cbed23e3ea97bU, 0x3dac11e13deac807U, 0xbddc4c87be0531ddU,
  0x3e5c5580bd4b5b25U, 0xbc0fdcc13cd447a4U, 0x3cc8cf053e0233ceU, 0xbdcc66d7bd0fa6bbU,
  0x3e705a093b25a4a7U, 0x3cfeeedb3c5bec58U, 0x3e38ca013e16b24eU, 0xbdca0871bdc97119U,
  0x3e9c29163ccdea7fU, 0x3e2b23923e6fca94U, 0x3e5e640b3d440da0U, 0xbd75f177bc369d5eU,
  0x3dfcc62bbda9bf29U, 0x3e048f423e9b9ecbU, 0x3e66a26f3de13825U, 0xbdb694a4bd543cfdU,
  0x3ea599ef3e3da6c6U, 0x3dc61a7a3e00eda1U, 0x3e35a7d83b660f76U, 0xbdf72fd9bdf1f648U,
  0x3e31821d3e46b36eU, 0x3d91f9263d65e6a5U, 0x3eac54113e0ee244U, 0xbd84c6b3be3d6a05U,
  0x3e11de063dbd3bbfU, 0x3e0ffd093e215bd1U, 0x3d668ca23e17ebb5U, 0xbd50088f3b2bc646U,
  0x3e6b278e3e270f21U, 0xbd27bda1bb467aa3U, 0x3e6a88033e296f4fU, 0xbe765b5a3d0b1a29U,
  0xbce660bfbe38931bU, 0xbe5447b23e88f245U, 0xbcda111abeb4eaf6U, 0xbca8f52fbec272eaU,
  0xbe32b99bbe81da80U, 0xbbbcc9323e62d0d0U, 0x3c49bfdfbee4f1a3U, 0x3dd5e644beb008f3U,
  0xbdb620b7be5b7e0eU, 0xbd89aef53e663296U, 0x3e028219be122f04U, 0x3e16e2fabe16f10cU,
  0xbe03ac9fbe912cd3U, 0xbe4eca8d3e3c79bdU, 0x3ca64029be566b46U, 0xbdcf6f60bd2bfec0U,
  0xbce05bdabe4398c2U, 0xbe2ba2f03e0e1d47U, 0x3d03cc06bde23e29U, 0x3e81672cbee4cc0aU,
  0xbe368391be6bef3dU, 0x3c7743d03c6a4fbcU, 0x3e5f569abe6da41eU, 0x3e471812be8fed60U,
  0xbde8ce9bbdfc89d3U, 0xbc404efe3e086e9aU, 0xbd8b9df7bdf8dfd5U, 0x3da88706bec80986U,
  0xbe6e5ed7bdb6bcd6U, 0xbd8a9c1e3e871809U, 0x3dfd9293be2e8671U, 0x3caf0ab7bee6ece3U,
  0x3aeef459bd1f23c1U, 0xbeb5e5243e64c027U, 0x3cf41bb8be3b863dU, 0x3e02ca54bf3709b7U,
  0xbc0c4cfbbdf89a82U, 0xbebab1f23e308c8aU, 0x3cedf641bec2e764U, 0x3abc55e7bf0b359cU,
  0xbd5c7cf7bd8c2a24U, 0xbdacd6db3df9dfb4U, 0x3ba64e5dbe94ad87U, 0x3d1483cabe149693U,
  0x3d4bc744be416f75U, 0xbd161dbb3e7b9fa5U, 0xbbbe3940bef58302U, 0x3e175696bdb1cff7U,
  0x3d800798bead41deU, 0xbe7be7b43deffd21U, 0x3c052fec3d69768cU, 0x3cf4dc83be9d230dU,
  0xbdb532e1be9a8be3U, 0x3cccf6da3e82f204U, 0x3d4f2dabbe868b8dU, 0x3e360ef8beb09550U,
  0x3e1dbfd2be98f2f2U, 0x3c683d973d87d16dU, 0x3ca341d6bec66482U, 0x3dd463a9be1271f9U,
  0xbdaed6a2bea64269U, 0x3de3bb253d8d72feU, 0xbbbc7bedbddf6a64U, 0x3dbc76bcbdcfb750U,
  0xbe293210be6d3fa7U, 0x3d612e643e1a0ffdU, 0x3e8d1db8be303193U, 0x3e0eb5babcb2e21dU,
  0x3e2ec7c3be522d58U, 0x3dc421543e66b830U, 0xbc6d36f1be245d32U, 0xbcfc4f9abc6ba34bU,
  0xbe537393be6f94feU, 0xbe26451e3e12ebbdU, 0x3d7d780bbd5d659cU, 0x3dc62eddbe9660dcU,
  0xbda456c1bec3a044U, 0xbdb527363dc7802fU, 0xba68a24e3ca1783eU, 0xbd83849abe7ae0a7U,
  0xbe473d8ebe94db34U, 0xbedab1783e90fa05U, 0x3d4f259abc065571U, 0x3d9d94e4bef7423fU,
  0x3d476084bea71eecU, 0xbed8e31b3e8b5c51U, 0x3d19f36bbe7fdf29U, 0x3da5e7fabf0650feU,
  0x3db065be3e3609f4U, 0x3eb8ed4c3dfad4d3U, 0x3b58121d3e9d7830U, 0x3dc2a8803e6a32e6U,
  0x3ea0739f3bc38599U, 0x3e64719d3e03dbf5U, 0x3d1fb6373e9934d3U, 0x3d70dea43e82c77aU,
  0x3eba6c6c3dd43183U, 0x3ea968c63ba0e9f2U, 0x3d8053fa3e8a7feeU, 0x3c3188463e13fe04U,
  0x3d5139973d8b462fU, 0x3f027bc63d86645aU, 0x3cca400f3ea34e1aU, 0x3e1a8432bdb5f4e7U,
  0x3e777dec3deb19dcU, 0x3e54dc2cbcf3b51dU, 0x3e3b1c9f3e62e208U, 0x3e09f3123d9e4c52U,
  0x3da94f663e15def0U, 0x3df84cb53e176474U, 0x3da992063e2d1cfdU, 0xbd66eb5f3e975a9eU,
  0x3d9452a1bcad3238U, 0x3eaebcd2bd84082eU, 0x3e6f44523ebc9591U, 0x3dd02fc63e3b5c0bU,
  0x3e585f5c3d91f439U, 0x3e9b04363d338769U, 0x3d99d6683e7a0100U, 0x3dc8b24f3bee3e92U,
  0x3da608c03d9f8aa9U, 0x3ece66ff3cef96f3U, 0x3e664ca23be1e966U, 0xbdddd8773e90bef3U,
  0x3df189d13daec397U, 0x3edd96ebbdee7387U, 0x3e011e943e8da0e5U, 0xbdd7f2743e19bca9U,
  0x3e4fbac4bdb80a5dU, 0x3e6e5843bde16740U, 0x3d4c4f2b3e717346U, 0xbda16fb53db45b75U,
  0x3daa64023dbc7a1bU, 0x3e7a9cdf3d49ae0cU, 0x3d8b80003ee19b2dU, 0x3c094e9d3cf9c845U,
  0x3d4264b63e151303U, 0x3e9f57ccbda02254U, 0x3ca9090e3dc15554U, 0xbd4d7a943e0e3bb2U,
  0x3e640ab63da08471U, 0x3e0c1212bc680e50U, 0x3d8153533e72bfc9U, 0xbd358e8a3da6bae7U,
  0xbd3582e13e568f45U, 0x3e955043bdc81fa2U, 0xbd6cf6d13ea2acc2U, 0xbd661e4b3e702587U,
  0x3dd3c73c3e94505aU, 0x3d93cd963e5a5634U, 0x3cba3f883d6bdd87U, 0x3e0ac888be1b3821U,
  0x3dae4dc13e343d2fU, 0x3e68d4e33b89dab9U, 0x3ddf09543ec7bfe5U, 0x3ded2d263d1e9f7bU,
  0xba30f5803e7efecfU, 0x3e61d53d3e209808U, 0x3df300653e114153U, 0xbdb62ef8bd531c34U,
  0x3df50d233e38ab9dU, 0x3ee3942a3df55d85U, 0xbcdf2e7b3e4d7f8fU, 0x3d618e663e594bb0U,
  0xbccb43c13e88cb0dU, 0x3e7473a13e0e925aU, 0x3da333783c3f4c39U, 0xbc1c49d73d136360U,
  0x3e58daacbca50e01U, 0x3ea087463de816adU, 0x3e08d1ee3df4901bU, 0xbdd10f9c3e90748aU,
  0x3e8bd7a73d795678U, 0x3f0ac7603c8a3225U, 0x3dadd6343e3c99e4U, 0xbdcea75c3eb145bfU,
  0xbede77423d9e15c9U, 0x3dc1caa73dda96f4U, 0xbe820eb43e917feeU, 0xbe9e04e93d7ffc48U,
  0xbe9f7851bdafa1aaU, 0x3e9bbadc3d59572dU, 0x3bb9be3a3e105e0eU, 0xbed3230b3e612326U,
  0xbe7cce0f3d6dfe68U, 0x3e3f6ae83cbbc53dU, 0xbd92febc3e0aec98U, 0xbf17b0343e75948fU,
  0xbd8e82fa3e354996U, 0x3e40ee3ebd317d5dU, 0xbe77c2383e084dc6U, 0xbeb5712f3e2d9611U,
  0xbe7bcfc1bccfb207U, 0x3d8501723d824718U, 0xbe8419e43e29b278U, 0xbf160d833e47d837U,
  0xbe810c44bd33e319U, 0x3da71b4c3daf6aefU, 0xbe21f98d3db82444U, 0xbe65d0843d29d973U,
  0xbe02b3f93cd6248aU, 0x3e71ac333d9c40a1U, 0xbd7ba84d3d38ceb3U, 0xbe983bba3eaaff37U,
  0xbe6d29b3bd218c5bU, 0x3dbfddc53da179c6U, 0xbdd93e793e13ae0dU, 0xbef4bd113e807fadU,
  0xbe871ed0bd39a119U, 0x3e7ed287bd5480dfU, 0xbe999edb3e87a4b7U, 0xbeb6366f3e1e1bddU,
  0xbea46fc73dec3aa2U, 0x3d8971303dc6deddU, 0xbe2879753e2174b9U, 0xbeb63a403ec97e36U,
  0xbe4c24903dc2cbe6U, 0x3e9ad38e3cf1ab53U, 0xbe8939f63d92eb75U, 0xbec2571f3ef194dfU,
  0xbe803a0e3e081a2dU, 0x3e7c90b23d9abde6U, 0xbdba07a23e89eb62U, 0xbeb725be3e4178e3U,
  0xbe18bf333e24e0bdU, 0x3e7672c5bd10233dU, 0xbe5b4cec3d317bffU, 0xbf08b9b63e800c89U,
  0xbeb1f59fbbe58b04U, 0x3c979968bd4d81cfU, 0xbe47cb4e3e3d0bfbU, 0xbea235983e8b7e13U,
  0xbed2323d3d1c6e6dU, 0x3db0a6403e22adbfU, 0xbd8aedf83dd8c19fU, 0xbebc51d33e51d9c8U,
  0xbe3a19283e0a6652U, 0x3e6a7ec33d8775e9U, 0xbe79440d3d827d25U, 0xbe8eb8ea3e6723b5U,
  0xbeded3eebc64b4d3U, 0x3e0473473db7807dU, 0xbe6c4b6e3db9494dU, 0xbed1ab043e9db987U,
  0xbf12a9d73e24f1fbU, 0x3e9e1d3b3cb274b1U, 0xbd8119cf3d8f0211U, 0xbf0395673e6cc621U,
  0xbefdbc7f3e054effU, 0x3e001dcebd7ef0daU, 0xbe513b453dcb4374U, 0xbeda35a13ea0befdU,
  0xbe2b6ca4bc974f46U, 0x3e740d16bc41ba5cU, 0xbe8d1fa9bd950dd8U, 0xbe9969143e6a5f72U,
  0xbf0731193d60fa69U, 0x3e706883bd68673fU, 0xbe0f21b93e42cc46U, 0xbeef24a03e8a3c23U,
  0xbf0fc0783d3d05fdU, 0x3e4ef3763deb62b6U, 0xbe25b5c03e5dc9daU, 0xbe9320033e5c7073U,
  0x3da694c7bd1fb871U, 0x3ca5eb5a3e951336U, 0x3e9a1995be5627c9U, 0xbc5f9225bdd49abcU,
  0x3dd12207bc3eaf76U, 0xbcbc4eea3e4a78edU, 0x3e273333bdcc82fbU, 0x3e0103cdbd3cc598U,
  0xbd0285cfbd6c058eU, 0xbdb81eb63e8851aaU, 0x3e5a12ebbdc99518U, 0x3c7b5bc4bbdf5979U,
  0x3e4bc26bbdb311b8U, 0xbde843e83dcfde86U, 0x3d8ef0a33db392ceU, 0x3df2aac8bdbb98f9U,
  0x3e0bb268bd32995fU, 0xbd047d583e332a24U, 0x3e2fb33ebdec02b4U, 0x3dbbe184be516d54U,
  0x3de7a98b3e3658c7U, 0xbd4ee7db3d5bfe92U, 0x3dbeb64b3cb9dc92U, 0x3e2c3999be2ba717U,
  0x3e8a174a3d9205c1U, 0x3d0218393e13922dU, 0x3e9af1af3c07b06dU, 0x3e60d3e6bd8887f4U,
  0x3d7a0c57bde3aad3U, 0x3d9965d43dfccd55U, 0xbbfce179bce4792dU, 0x3d0c5574be034faeU,
  0x3e5426c23e2183f5U, 0xbd61ed923e88a50bU, 0x3eba4f9cbe0cec07U, 0xbd9e8805be24ae2eU,
  0x3e2a492dbe11c011U, 0xbdc502d23d940397U, 0x3dc774663d2a6bd3U, 0xbd19228abd907e0cU,
  0xbd7de5083d9b2a5bU, 0xbceabcf63e6a9625U, 0x3e026c82bdc8ecf5U, 0x3c20de0fbeb93079U,
  0x3cf6b5203c4ceb61U, 0x3d63ce703e47330fU, 0x3d713576bdd00b5dU, 0x3e59c6e2bd703f34U,
  0x3e2ba8073c8a90dcU, 0x3d8d25a23e7304f6U, 0x3e5288d5be0e51f7U, 0x3e065868be9d4165U,
  0xbcec45983c6d9fb6U, 0x3da71e1a3dc3b7dcU, 0x3e510747bd3b958fU, 0x3e251b60be0268e2U,
  0x3e8db359be44f3b8U, 0x3cd62a193dbc26ebU, 0x3d220019bcc4e598U, 0x3e158e24be141bd0U,
  0x3e514f4ebb4e2445U, 0xbdf442d13c015722U, 0x3e73b8c6bdb4d7dcU, 0xbdd26f08be119d03U,
  0xbd2ecc19bdbb13dbU, 0x3d959ed83e91f336U, 0x3e251c7cbdfbe7bcU, 0x3e1fac19bd603b9bU,
  0x3e3b81fdbdc2293dU, 0xbc8177fc3e7ffaf6U, 0x3e9093903d065dd8U, 0x3d875d0fbe27300eU,
  0x3e0b11483e2e48c9U, 0x3dad723a3d65775fU, 0x3e5c5e90bda3e10bU, 0x3e44d302be2c0fb8U,
  0x3e342c7b3de60acbU, 0xbdca7cff3e860461U, 0x3e8752913e3799c7U, 0x3d0104f6be8833e1U,
  0x3e49d6633da76cf6U, 0x3c8972ef3e48f216U, 0x3e61d62abde418f8U, 0x3d8e49113b425af5U,
  0x3e299ad5bdca2527U, 0xbb948ca93d9e3a8fU, 0x3e8feb2bbd865459U, 0x3de173f2be946754U,
  0x3e4c021b3e27408aU, 0xbd6bef96be9d8426U, 0x3e2332fd3e3f02feU, 0xbcbcc0b83df708dcU,
  0x3d437de13d75ee20U, 0x3c39322dbebe4684U, 0x3e6705123d51f753U, 0xbd212123be39ff7bU,
  0xbd08db3a3ddd6ee4U, 0x3e347f3abea91b07U, 0x3debd9a23e0b7135U, 0xbd8a23c2be11bdf2U,
  0xbd3afe5c3e2f6ff3U, 0x3e20ac4abea0de0cU, 0x3e888766bdaf3cd4U, 0xbd9584bdbda47fb8U,
  0x3ba2faaa3dc492c7U, 0x3ce01901bee1a717U, 0x3e0db0ca3e0cd9e0U, 0x3cad11cebe3f2e69U,
  0x3d9b03153e271532U, 0x3cb9fe11be5e04c9U, 0x3e173afe3dc6da51U, 0x3cf884f7be417f98U,
  0x3e80ec65bd1337e8U, 0x3dcab1bcbecb4ed8U, 0x3e8ac9783e200f36U, 0xbcb1eeadbca5490cU,
  0x3da93a2d3da8baccU, 0x3d5753cfbeab8ac8U, 0x3e877a5e3e343e03U, 0xbdc06c9abe00af8aU,
  0x3e404d933e31752fU, 0x3e849e4ebe596a5dU, 0x3e44c4243dae2262U, 0xbc92433f3ce893dcU,
  0x3e134e433ecb3962U, 0x3df6d498becddec6U, 0x3e6b10bb3d50d7d3U, 0xbe802a38bda87c4fU,
  0xbd97a8db3e5c9116U, 0x3cdcf95bbea88ffaU, 0x3e80c0813d4d82ceU, 0x3d912018be4174abU,
  0xbdcffb2d3e5f1f13U, 0x3e30c491bf05e708U, 0x3d81c86c3c49d3b3U, 0xbd22e871be5efe3aU,
  0x3da43fa33c1c89a9U, 0x3dc0b711beb7963cU, 0x3e6bf2b23b74d817U, 0xbe64589bbda81c87U,
  0x3d88b2873e6c204cU, 0x3de82333beb49e25U, 0x3e93111e3e1dbc82U, 0x3d0b124dbd15449cU,
  0x3e428f393dee3dfaU, 0x3e45f01abee4f33dU, 0x3e602ff73d943a68U, 0xbd343776bddd28b5U,
  0xbd5df8163e2205ddU, 0x3dad71edbf0832bdU, 0x3eb51be93914eadeU, 0xbcb1ec9d3da53acdU,
  0xbdd50c9f3ca4c1b9U, 0x3ea03c1bbed679e3U, 0x3e7116c43d044a2bU, 0x3d8d4db4be2e6900U,
  0x3e2153ff3e9808ffU, 0x3e11ca27beceb426U, 0x3eb551f03bb0bdc0U, 0xbe98e652be82539aU,
  0x3e2c9d263e215145U, 0x3dc6cc44be64a2a4U, 0x3e3204573d15e8d5U, 0xbe70dff9bca63ee1U,
  0x3e26c4e53e723278U, 0x3c1bc34fbee32e29U, 0x3ea379b83de72d5eU, 0xbe3433a9bdfced38U,
  0x3c545ed73e13f67cU, 0xbc7aac55bed83ec7U, 0x3ebba1883e8c2cd0U, 0xbe238f5abbff428eU,
  0xbd7886663d8e600fU, 0xbc8e87bebec14e25U, 0x3e21e9be3e05f068U, 0xbe57f62fbe4726b4U,
  0xbd34333cbd81649aU, 0x3dcfdf923e79cdf0U, 0x3e65f468bdc36e6fU, 0x3e5d95a4be21e547U,
  0x3db7eb003e1b9a76U, 0x3ba7aa133d28abceU, 0x3dea39e03cbc5759U, 0x3cc5cedebdadcfd3U,
  0xbc61bcc6bd2ba420U, 0x3dcc8ffd3e93f465U, 0x3dde114dbb3ad341U, 0x3dacbb4fbe70c22aU,
  0xbcba6094bacb205bU, 0xbd17dc893e46b06cU, 0x3e6689a4be3e3cbdU, 0x3e07c2babe32fd99U,
  0xbd4944fdbd5c3d86U, 0xbc308ee53e410e0cU, 0x3d51015c3d9addf1U, 0xbd0ab946be31f6bcU,
  0x3de18ae23e385fe6U, 0x3d1e3c6d3e462f0cU, 0x3d2a312dbde857ecU, 0xbd9631c5be5306e8U,
  0xbdb2069dbdf8b6a7U, 0x3db3fae13e5336ffU, 0x3e4307133e039797U, 0x3ccba4cabeac4a58U,
  0x3dd22476be41b710U, 0xbdcc55173e44ad9cU, 0xbd6c2d43bd1f8659U, 0xbd2c0e6abea464d1U,
  0xbcec08ff3df7f015U, 0xbeaddfaf3e44083cU, 0x3e3b4c4b3dbe82b3U, 0x3d8d838cbe5caa30U,
  0xbd67cd5abd880986U, 0xbe0d94023e0b24d5U, 0x3e08c0b2bcd45116U, 0x3ccb27d3bea529e9U,
  0xbcf2475d3d40bfbfU, 0x3c850f5f3e87814eU, 0x3e160c36bd7aa1fdU, 0x3df6dbd7be9ce171U,
  0x3dc235a63df63876U, 0xbd745d043da4d254U, 0x3e368fb6be6e7d91U, 0x3d601914be453f0fU,
  0x3e121559bd2198bfU, 0xbdee93623e8edb22U, 0x3e4f1df5bdf20796U, 0x3df03b27be164674U,
  0x3d0db3bc3cee6ce0U, 0xbd3699443cb1406aU, 0x3e7bba003c914b37U, 0x3cdc7e0fbe94146cU,
  0x3e149940bd501426U, 0x3c83c1ad3df0f4c3U, 0x3e330480bda2673cU, 0x3d43e9d7bd2a9903U,
  0x3dc06285bc156ad2U, 0x3db2b6ea3d869283U, 0x3e708a733dcdcdcbU, 0xbda75f073d9e4c86U,
  0x3dc8b7a4bbde5290U, 0xbc45e2803e821dd8U, 0x3e9eb85fbe4aba31U, 0xbd2f97b6be684a2bU,
  0x3e49bd023d483aacU, 0x3ca2cca53c7268c4U, 0x3eb17e453d44d503U, 0x3e226fcebe0931dfU,
  0xbb34892f3d9a6958U, 0xbdc04a813cff95ecU, 0x3e8498aebd9551faU, 0x3e16e9ebbe4bbaa9U,
  0x3e04dc29be3c5334U, 0xbdb0416e3da50a60U, 0x3e8abd113e5d9d0fU, 0x3e21392fbd8a51f5U,
  0xbcd4a2ad3c98b21aU, 0xbde269d73d4d4a46U, 0x3e3871703d09c95fU, 0x3da8ec3abe569494U,
  0x3df197cfbdf71034U, 0xbe39f9c73e28ab0eU, 0x3e2ba2e13c6343baU, 0x3e3d64a7be89ff6cU,
  0xbd8c09923d7efeaaU, 0x3dc9fbcfbd622009U, 0x3dc56a1c3e804020U, 0x3d0f2ef33ec9ccf2U,
  0xbd4503903e5ae271U, 0x3d3247163d0a3f06U, 0x3e571f753e97a061U, 0xbcb8853b3e8d081bU,
  0x3e559fec3e8112b8U, 0xbdb497103de484bdU, 0x3d8737e53ac04071U, 0x3d2f05ed3e9f3e16U,
  0x3e2754823e25f528U, 0x3dcd8259bb641bb0U, 0xbc37fd853e2c940bU, 0x3e044ebf3e57de84U,
  0xbd77ec7f3d824964U, 0x3eb1b085bd86740aU, 0xbdae068c3e014030U, 0x3e2d59f13e58a5e8U,
  0xbe26672dbd3f2fd8U, 0x3d8d6c493dd7f204U, 0xbca64e053e99635dU, 0x3e151c043f021013U,
  0xbe996aa53c280a09U, 0x3e66d9f53ce12524U, 0xbbf69c623c964a11U, 0x3d8e19933ea09cb5U,
  0xbe02eb043e1d832fU, 0x3e5d6aa7bc92d46fU, 0x3e3119b03e95c0f3U, 0x3deeff553f00aea8U,
  0xbe3492203e4a0245U, 0x3e7a5a57bd913e50U, 0x3dce68543e7956b4U, 0x3dd633443edf10d0U,
  0xbe97bac83e4f8e29U, 0x3e4ce3813d9d3e67U, 0x3d9adacb3d306150U, 0x3d17194a3ea745feU,
  0xbe910f8b3e89d533U, 0x3e090ee5bc901c89U, 0xbcff60cf3da64fe7U, 0x3de323b13eb77ecaU,
  0xbcb48d853df4fab5U, 0xbd500de73e1bd5b6U, 0xbd2f565b3e0208c1U, 0xbc00679d3e946beaU,
  0xbda8f0a73dd1944dU, 0x3e8ac8f43db80d5cU, 0x3e205fb1bd8039adU, 0x3e1859933e9fad80U,
  0xbdb2dbb73de186beU, 0x3e8164693ddcf671U, 0x3c00bf153dcc0bd4U, 0xbd037f423eb0868eU,
  0xbe23713c3e66f676U, 0xbda44ac53e03e093U, 0x3e44d0883ea1514fU, 0x3e0e9db03e990e3dU,
  0xbebbdf8a3eb8d629U, 0x3b0226a63d173404U, 0x3e5f477abd7e3556U, 0x3d973b903e9c4ad5U,
  0xbdf0f5ab3e1e6a55U, 0x3d4a91293daa82f3U, 0x3e120b7f3e7c3229U, 0x3e4db81e3e17f1b2U,
  0xbeb1da293e83ff13U, 0x3d7c00313cdb2fa7U, 0xbdab1bf53d1bff16U, 0x3c7130fd3e8203caU,
  0xbe9987093d5c1bf7U, 0x3e80cfc33ddc6da3U, 0x3cdbfa313cb88188U, 0xbdac90983ee137f9U,
  0xbe8277f03ea6be5eU, 0x3e0534863db24836U, 0xbcb99a35be7d857aU, 0x3d729c5f3e772663U,
  0x3d9b402b3e80355aU, 0x3e522c143c28df07U, 0x3e13dd2a3e72bf9eU, 0xbd3387db3e8fb7bdU,
  0x3e6a47493d8fe032U, 0x3e5c15bb3e17e82fU, 0x3e4b38553d2bd841U, 0xbc7caf8a3eea2b8eU,
  0x3d4bc8d53df69c0bU, 0x3ef599483e101481U, 0xbbd86b003ea41ef0U, 0x3de5996b3e8f0f57U,
  0x3d68e6703d63314bU, 0x3e5bccc83d7ce35aU, 0x3dc2e15d3eceb39fU, 0xbd6f09843e6486c9U,
  0x3e36526b3ca524d2U, 0x3f0c5e4b3d8532eaU, 0x3e1e8ae13e9ffe0fU, 0xbcd1b48e3e163631U,
  0x3e8ca41fbc5c01edU, 0x3f0eb3603dff25daU, 0x3e2ab24b3ec783a9U, 0xbd3436573e7e7230U,
  0x3e7791643e355ba5U, 0x3f04abbd3e32dc74U, 0xbda36fc13ec801b8U, 0xbd3f7e103ebb84bfU,
  0x3c847ca23cddd0c1U, 0x3ef7081a3e3e3897U, 0x3e22b0b13eb2611fU, 0x3da83d233f021cdfU,
  0x3de42aecbc12a1c9U, 0x3ea5a90abd662435U, 0xbd0690873ed2f0baU, 0x3d7676eb3ed83069U,
  0x3e73c43a3e958136U, 0x3eedcd023e34ae6eU, 0x3e1aefcf3e8e59fdU, 0x3e345e613e4c9447U,
  0x3e8ccf7f3e0f63c6U, 0x3f2eeeb33e1f1acfU, 0x3a4d485c3e6ecbb7U, 0x3d4cc7ef3f16a380U,
  0xbcc65af33e25ffe8U, 0x3f1361ccbcea05d6U, 0x3dc026693ebfaa12U, 0xbd518c1e3ecf00e0U,
  0x3e721acf3e1c5c56U, 0x3edd38003e264ae8U, 0x3de126d03eb5506aU, 0x3cc28f0f3ee4eeb6U,
  0x3e196da13d87291cU, 0x3f228a98bd4f2067U, 0xbd738c673ea66128U, 0xbd117c2e3e35b40fU,
  0x3e30460a3d8ccf9dU, 0x3ef824c2bba3f49aU, 0x3de76c2d3e887582U, 0xbd41265f3eaac2e1U,
  0x3e619a343e9f135cU, 0x3ec241003e22ad91U, 0x3e1364283f09c71dU, 0xbde035743ea39e9cU,
  0xbd39b9b43ecbc7f4U, 0x3e9f06493e0623f3U, 0x3e4435ab3f096c25U, 0x3dadc1f23ec2b2a2U,
  0x3e52e1ab3e2799f5U, 0x3e563fb23b02f78cU, 0x3d3097d33e22d856U, 0x3bc18e983d86a3c2U,
  0x3c4de8c33dfdce81U, 0x3ea7c88e3e03f270U, 0xbd9c75123ed7c486U, 0xbc1ee9213d4678aeU,
  0x3db9f7913daf04c0U, 0x3eeaaeb03cd6750aU, 0xbde91ca83d9be184U, 0x3dd61a6a3de44ab2U,
  0x3d2de6043e4159aaU, 0x3f052f6039bc3bf1U, 0x3d090ca23edc67c1U, 0x3daf38ff3f04c0b6U,
  0x3e1092ca3db272d8U, 0x3e3f9bf9ba76e672U, 0x3d9e10133ddc75f3U, 0x3d7dc4573e43f7efU,
  0x3de9eeb33e6732c2U, 0x3f0f6244bcd07cb8U, 0x3dc4b18a3ecd7cfdU, 0x3d21c9733eb72f22U,
  0x3d6709d13e8d667aU, 0x3f511e29bd05d6b5U, 0x3e3c33023e2e567bU, 0x3d902ad63f03ce75U,
  0x3ea6a7263e3e8caaU, 0x3e6c0af6bddb94a2U, 0x3de0368e3e3c4051U, 0xbdba7a453e0a230aU,
  0x3ea0f3d73e225e28U, 0xbd2ac9753dbe717dU, 0x3e2332703e25075dU, 0xbe0563383c203fc8U,
  0x3ea367703e0f66f1U, 0x3db4ffca3e3e7459U, 0x3df4c1e23e7d5c02U, 0x3d9b1ada3dba7062U,
  0x3ea6fdd93d748fb6U, 0x3df898e93da9cd59U, 0x3df0ce73bd10f863U, 0x3bcf9130bd8f1b4dU,
  0x3e4a2db73dcf9684U, 0x3e7156153db3b087U, 0x3d9a99d03e64f7b9U, 0xbd9e3b0b3d06e0e0U,
  0x3d84e1f33b52d1b2U, 0x3e0f70f63dd9b564U, 0x3e0715883bcee305U, 0x3d8da0223dd24b07U,
  0x3e9200763dc328b2U, 0xbd03feae3d37ebdcU, 0x3dcb836e3dbb0f35U, 0xbdb621823d092fb1U,
  0x3eab504b3db37dcbU, 0x3d0939ea3d2cb719U, 0x3d69c2033e0620b8U, 0x3d835d2dbcaedff8U,
  0x3e1762893dbaaa4eU, 0x3ecfae2e3dd3ffd7U, 0x3d9361623d2ad2cbU, 0xbca186c13d2b6af0U,
  0x3e3b01b53e400841U, 0x3e63481c3da97246U, 0x3dc00db53e72e58eU, 0x3ce0190b3d8bac36U,
  0x3e953b323dd58b81U, 0x3cba07bd3d39f362U, 0x3a9a57d23e8780f0U, 0xbcee84b6ba26c5e5U,
  0x3e98d19f3d6c5115U, 0x3ce27a953d25f80eU, 0x3e0d5ac53e1a683eU, 0xbdb985893a91b26fU,
  0x3c185d75bc7eabdaU, 0x3e9000123d99b141U, 0x3e9da1b03dd8b6e3U, 0xbd9cfd4bbde10b44U,
  0x3e4412e33e109d84U, 0x3e017a3b3da6e802U, 0x3e8b7abe3d257502U, 0xbe3dfea03d289d6bU,
  0x3e3afa4f3d15b5ceU, 0x3d3a91bd3cefa9b1U, 0x3e1fb0c73d864cd4U, 0x3d625a35bd4c15ceU,
  0x3d1352a43d7a43a9U, 0xbd3a3e673e1f3655U, 0x3e616ddbbcfe6c08U, 0xbd97d126be3a1db7U,
  0x3e5d7e083d9d07abU, 0x3d5de3573def63ebU, 0x3e5e71fa3e92013aU, 0x3d5f31fbbd6fc921U,
  0x3dc8661b3dea6ac1U, 0x3c36a534bd0e4a30U, 0xbcb5f86ebd946bd7U, 0x3dac8da3be5a2273U,
  0x3dcdfe283ddc28afU, 0x3e7de5053df2a7d5U, 0x3d7700f73e512ff5U, 0xbe05372a3d31e33bU,
  0x3db3770e3e789597U, 0x3e11cbe13e0b1487U, 0x3e8ef552bd1a5386U, 0x3d1264d2bb87f325U,
  0x3eb6f3fb3d8e6dbdU, 0x3e182231b9e4fa8bU, 0x3cbb73be3e387a11U, 0x3cd268e43d823263U,
  0x3e26df02bd4df4e3U, 0x3e8c13d2bc67eb2dU, 0x3be02e623e2d1666U, 0xbe12ab253e8d3251U,
  0x3df0356a3e173292U, 0x3e8b1f313d4784b6U, 0x3e079a3f3ee49600U, 0x3cc3bd873ee35373U,
  0x3e40d68a3dfef9afU, 0x3ea0c519bd2569b7U, 0x3dfe87833e87e4c6U, 0xbda8e4e73e666b0aU,
  0x3e8c12ed3d5703eaU, 0x3ea515193d857bbdU, 0x3de17b183ebfd8b5U, 0x3d2c72db3ee839caU,
  0x3e1c434a3e0a0242U, 0x3f15c7533dedd439U, 0x3d4a1e303e672edcU, 0xbc9bf1453e1be426U,
  0x3de57e8e3cedc7cbU, 0x3ea4a2893da2671eU, 0xbdafb2083eda28bfU, 0x3d4757273e9944a0U,
  0x3ab703b2bac7b821U, 0x3ebfaf9dbcff27f6U, 0xbc41f6cc3ebd8194U, 0x3e322ede3f2adbddU,
  0x3dac8462bd2d9418U, 0x3e7c667c3e0b1c68U, 0x3d7eee7b3edde513U, 0x3dd90e0d3ee961beU,
  0x3df4ebb03e8aa379U, 0x3e9433013cda2643U, 0x3dbfbed03e4734e8U, 0x3d0c71a73ea23b1fU,
  0x3b4e044d3e249afeU, 0x3f21256d3d6fb90aU, 0x3daf95543e16faa8U, 0x3d693f103f076269U,
  0x3d72dd853e2a3cc8U, 0x3ef50bd2bcd76c39U, 0x3cbdee9c3ecc44a8U, 0x3e09401c3ed6a976U,
  0x3e52bbfb3e7048d3U, 0x3ed3c9293de30313U, 0x3d9191743f1846eeU, 0x3d6f12713ead448dU,
  0xbdb778abbd21100aU, 0x3ec598f6bd176e72U, 0x3dae67443eb41f1eU, 0x3d8a69583e66f069U,
  0x3d1d6cb93e2c1932U, 0x3f0d24c4bc806943U, 0x3e03ce723e76e4dcU, 0x3ba43a133e80ad7dU,
  0x3d8ca44f3e3fe7f5U, 0x3e1afaaf3e02c280U, 0x3e0b2db43efcee2bU, 0xbdd366223eb78340U,
  0xbe02eeeb3e82c7b3U, 0x3dedf5123d947d1dU, 0xbc05d9ac3eb6e498U, 0x3d9ed3663ea4ac26U,
  0x3dce14203e162f75U, 0x3e852f0a3e515aa1U, 0x3d3b41293e2e7a42U, 0x3dd0052d3dc72fb9U,
  0x3e115ad93e8ced4eU, 0x3d4871e03d343d4aU, 0xbbfff7333ebdbaebU, 0x3d0de14e3ec1990dU,
  0x3da9c97d3e4a872aU, 0x3d94a9da3e32ac3bU, 0xbd5b96683e829ce5U, 0xbd0b8ca33e1707c4U,
  0x3e12d1a83eadcf2eU, 0x3f0c0ff13cf6c872U, 0x3d8e5a6a3e3718ceU, 0xbd42e2273ede0e9eU,
  0xbdbbc7db3df2e749U, 0x3e48000d3dddeecaU, 0x3da3a5d63e2acaacU, 0xbd05c6913ecb2cfcU,
  0x3e87ed2d3e8727c8U, 0x3f0736c53c04630fU, 0x3d21797e3e508b96U, 0xbca5d0dd3effe8d4U,
  0x3df0ba773e731f10U, 0x3f2ba88b3de705beU, 0x3e1069423e98c530U, 0x3db9e5ef3f3fc230U,
  0x3d85d1b43d70a2f5U, 0x3c3188273db990c6U, 0x3e7010a2be5e3631U, 0x3d96cda1be3b2b0aU,
  0x3e13aebd3bd51bc9U, 0xbc86d8e33e09170aU, 0x3e7a81cabe6f55caU, 0x3dadd3a7bdd3fb88U,
  0xbd6de65e3e30880bU, 0xbc9fd6af3e89a754U, 0x3e37a74abd696889U, 0x3e1f6eb5be28b841U,
  0x3d9ddaed399042c9U, 0xbd81d2443e4da9b1U, 0x3dfbc6b7bdda2e33U, 0x3ddecca0bd4ca5e4U,
  0x3dc62440bc30b43eU, 0xbcf51d4e3e384136U, 0x3ea6a731bdca72baU, 0x3e7f0248be1c99b0U,
  0x3d8a1a823e0a6d59U, 0xbd814e823d8d22f3U, 0x3e2e9d34bd833461U, 0xbd055c9ebe95a7aeU,
  0x3d9c4bf63d2714c1U, 0xbb94f5b13e6cb0aaU, 0x3da7800fbd016ab8U, 0x3e2da8c1beb48ef5U,
  0xbdb31b18bd1b424aU, 0x3d6876d33dff88acU, 0x3e65296abd54a42aU, 0xbc878234be4c7c2aU,
  0x3d0cde94bd8c339cU, 0xbe45d3323e0ffea3U, 0x3e5d0256be218080U, 0x3e12835ebe5757cfU,
  0x3e5c2dab3e0c331fU, 0xbe283bf83e936716U, 0x3e81ab3fbe8205b8U, 0xbd3f8d6fbe3e19baU,
  0xbc28dbe6bd5cd853U, 0xbc9800363d8799a0U, 0x3e84d4c7be0d0045U, 0x3b30b3c9be29c26bU,
  0x3df469dc3d8e794eU, 0x3a312e233e131e7dU, 0x3d3029eababaa393U, 0x3d595312bde5a397U,
  0x3cb17c5fbcc3e7c9U, 0xbdc354913d9120bcU, 0x3d854252be09c8d0U, 0x3e4c35ffbea903e7U,
  0xbb77126fbdff2c6dU, 0x3c40d1f03e9d846eU, 0x3e32a9d7be5f2077U, 0xbc4446aebe13de39U,
  0x3e1c4582bdf50cb5U, 0x3dd33b863df62238U, 0x3e2d1b2ebd469903U, 0x3e6189a23d16d7c1U,
  0x3de7d6d8bcbb3da2U, 0xbdb63d0a3d3830d3U, 0x3eab1b353dfe8c55U, 0x3d98a9523db9d3aaU,
  0x3d8a8df93c048601U, 0x3e141ce23e4e11a8U, 0x3e5807a6be128f1dU, 0x3e26b0f3be809562U,
  0x3e04331fbc195f12U, 0xbde219b13e8991a8U, 0x3e7582003ddf5c98U, 0x3e0537a8bde86effU,
  0x3d0f918d3c169497U, 0xbe1cc6bd3e01c9bbU, 0x3d3912913d4a9fa9U, 0x3df62762bdc50e1dU,
  0xbc87c4f2bd853fe4U, 0x3dd59cc93df9355fU, 0x3da6a8fe3e10e84dU, 0x3e4b5818be53973bU,
  0x3da6be38be321725U, 0xbcd4f3da3e8b7f28U, 0x3d0599babe1b8686U, 0xbcf0d23abe1deaf6U,
  0x3e158a3dbad7accfU, 0xbdc2617b3e997119U, 0x3e44f447bd9ab7ffU, 0xbd75d155be9a2c9eU,
  0x3dd58f803d629c9aU, 0x3e39c8a2bd2af60bU, 0x3ddb1c623eeac438U, 0x3cfe62e63eb85bdbU,
  0x3daf334bb9c8c486U, 0x3d7de9d13dd39361U, 0x3da09d4a3ece8cb9U, 0x3c6ea1413e3b9913U,
  0x3ca0a2da3ddffd4bU, 0x3e9931813e2c7829U, 0x3ce847a83eaf65fdU, 0x3c2d65ab3e5f1b6fU,
  0x3e0eae533e0bde97U, 0x3f058fcb3dd50e46U, 0x3d5175633eaee31eU, 0x3e3da2ce3e9b42f8U,
  0x3df4d0293d8dfe9aU, 0x3e82d86d3e0e3ebeU, 0xbda57d833eb354c1U, 0x3def3dc53f211681U,
  0x3e3812903a3a2448U, 0x3e5cc3b93d8b3187U, 0xbb091bc03eb522aeU, 0x3c7f8ea03ee8b08eU,
  0x3d6f9aa83e1a7912U, 0x3d75619b3b39bc5eU, 0x3e0f62cc3ebf6c36U, 0xbd4af24f3f15a63bU,
  0x3e0f087f3c92a4baU, 0x3ea06590bce6fb06U, 0x3dd96dc23e8e6d79U, 0xbd3b9b8f3eed6ebdU,
  0x3e5c8cd13df4fd10U, 0x3ebc1c67bd722b4dU, 0x3e2e72cb3e568bebU, 0xbd10018e3efc067bU,
  0x3ce256d33e1d3f1fU, 0x3edbe8f23d382737U, 0x3df544e83ed945aaU, 0x3dc792353ef54f99U,
  0x3cc5988b3cc15cf8U, 0x3e98be453e15e5a3U, 0x3dc32b7f3eb2b3d0U, 0x3d3b51b53f18a58cU,
  0x3dd432293ddfefa9U, 0x3e94f9813e1782c1U, 0xbc1cd41a3e80c305U, 0xbdcb93493e86ccbbU,
  0x3af8bfba3e859b20U, 0x3e9beab43d9574ffU, 0x3dfa494f3d9b76daU, 0x3dac7a033ecc15a7U,
  0x3d5afc5f3e93514bU, 0x3e8a45833bb6f2b8U, 0x3e0b6e7b3ea1bca9U, 0xbba6a2ad3eced70bU,
  0x3da0d9853ec9a5aaU, 0x3d9a681c3e354f6aU, 0x3d1488983ec0949eU, 0xbdaff2423ec3f471U,
  0xbd83f7b73eb88fd3U, 0x3ddc5d54bd2fa990U, 0x3c40f96d3e237f3bU, 0x3e4077af3da90e2dU,
  0x3c98c3843e74b705U, 0x3e4cf2ddbb94b346U, 0x3d887b393e699546U, 0x3dd20b533e882a94U,
  0x3d904d683e9267a9U, 0x3c2ed4ad3de35643U, 0xbd108f723d3d994aU, 0xbc923cee3c8a74d4U,
  0x3dd31afb3e8e5be3U, 0x3e58fa9bbbaca7b0U, 0x3e14e9103e8cfa5aU, 0xbd117b963f1ecd1aU,
  0xbcb956e73e52546aU, 0x3e87a9173da0e62bU, 0xbc5e97a6bdc92fdbU, 0x3d35e4583f111831U,
  0x3e3c225e3dfdb8c1U, 0x3f0af8913e099152U, 0x3cbfd74a3e88282dU, 0x3dffa1b63eea10f2U,
  0x3c8f232c3e034ffaU, 0x3f0cc5b73da95f8dU, 0x3cf01f7f3e9759e1U, 0x3d9a0f0f3f37a165U,
  0xbedd820a3deb83d1U, 0x3d8dc4cf3de87497U, 0xbd8973ea3c701225U, 0xbecd61d53e8e6755U,
  0xbeb23bc7bdc0f51fU, 0x3c8f4fca3d97de85U, 0xbdf3efc93e3eec17U, 0xbe9220983e3a3d4dU,
  0xbe86956abddbc416U, 0x3e88d6a13e223894U, 0xbe29e4933da7b992U, 0xbeb137f7bcc450f7U,
  0xbdbac778be940200U, 0xbc7fd4f83e36cd18U, 0xbdf68d373e608351U, 0xbe939d303dfbbbc3U,
  0xbe80f3f6be6c28c4U, 0x3def1f56bd5c57a9U, 0xbdaf0ef13e46d370U, 0xbe9f45f63e2cc495U,
  0xbeaf681ebdd3e7aeU, 0x3de84c52bd848b35U, 0xbd1deed7bdc974f4U, 0xbe2286363db53e7dU,
  0xbe4c03003df9b0f8U, 0x3e87413d3dd31772U, 0xbdc56ed43e8b6c20U, 0xbeda931c3dc54b36U,
  0xbe5e83ff3db2b087U, 0x3e688a273d3138deU, 0xbdcd14e63d5d76c5U, 0xbebc1d983e8f3f07U,
  0xbeccb6f53be606faU, 0x3c3919313cef5661U, 0xbeab15cc3e5495d7U, 0xbeb68a3b3df8e095U,
  0xbeafacc03d323f55U, 0x3e3c5f9e3e46b558U, 0xbe6375f93ddafc90U, 0xbed0af123ecb2cfbU,
  0xbde2298fbe469c2aU, 0x3d901dfa3d2b4307U, 0xbea690e13e457b28U, 0xbe8186713ea185eaU,
  0xbec1807c3d8ead8eU, 0x3e831fcbbc8a434dU, 0xbe2a9d393d81c053U, 0xbe63cd253e49ce05U,
  0xbebfab2b3e294db6U, 0x3c097715bde867ddU, 0xbd3ab9e73d7aea74U, 0xbe9cf8083dcc6c28U,
  0xbeafdb9e3e524d10U, 0x3cf59946bd0d9c19U, 0xbe633fea3d0dd6cdU, 0xbecc36183e8d74dcU,
  0xbe2b18513d5ca5f4U, 0x3ca5d7b63d3dbc63U, 0xbd86438c3d2bb729U, 0xbedf5dd33dbda794U,
  0xbeb6f86cbca542d0U, 0x3ea31a973cc03389U, 0xbd5dcc54bba98b5dU, 0xbebf0af83e59c307U,
  0xbebcd5cc3dd42cb8U, 0x3e3cdb5fbd949e72U, 0xbe8a42ca3d827b38U, 0xbf000e513eb07771U,
  0xbe6628bb3e4c7d7cU, 0x3de9c8173df38a2dU, 0xbd9533493e409de4U, 0xbea3688c3dc9a3caU,
  0xbecdc70fbbd324eeU, 0x3dada07b3d67ed36U, 0xbdadcb18bdbe29d0U, 0xbe7142a73e3ddd23U,
  0xbe8a14aabda81f00U, 0x3c83646dbba2c7e3U, 0xbe511c1e3e1d00e4U, 0xbe47366b3e16e6d5U,
  0xbe6f32bc3dccb661U, 0x3e5107a0bcad3958U, 0xbe7f17d6bcee27e7U, 0xbe3b3b473d88aa1fU,
  0xbe9371a1be03a108U, 0x3e6d177f3c1489d2U, 0xbc9f093b3c9ead13U, 0xbe4ffffd3dfadf96U,
  0x3db9a5483e5f5478U, 0x3f0fda35bc8a7fcdU, 0x3d219eea3ec60ec5U, 0xbd295d943eb8512fU,
  0x3e58e6053e2b9fd0U, 0x3ed279263dce5bbfU, 0xbca3ce083f0789baU, 0x3db511a93e5eec87U,
  0x3e4c087b3e780e98U, 0x3ed1a30d3de4d2f1U, 0x3e2e3e063f0442e0U, 0xbd34c88d3e95576eU,
  0x3e1972f7bcfad1fdU, 0x3f2aa24abcf68969U, 0x3e3db8a83e62f7d8U, 0xbd3310763e1056b9U,
  0x3e8ae8dd3dbdb64cU, 0x3f0a2a353da805b7U, 0x3e28e0d93ee14e3bU, 0x3c51663e3ea16c62U,
  0x3cce23743d547ca8U, 0x3e63de043bddd699U, 0x3da21a6e3e78a90fU, 0xbd226b0e3f04334eU,
  0x3e392517bd8cbd51U, 0x3efd89dc3e2c5575U, 0x3da663053f0313cbU, 0x3d81e2313f0410d0U,
  0x3cf63d2d3e3ef1f9U, 0x3e87dd253de4fcb5U, 0xbcf537c23ecded94U, 0x3e1da9ba3ef66094U,
  0x3c844c783df1af40U, 0x3f4c91863e2a3c55U, 0xbb38de4b3e4d89b7U, 0x3d1dbccd3f1a81acU,
  0xbd3afca23eb12098U, 0x3f2b060d3dd7e160U, 0xbda8ca483f0284eeU, 0x3db0c5273ecb1743U,
  0x3dc8340b3e1d66d7U, 0x3ea6356b3d0fa6edU, 0x3dc932493ede5186U, 0x3d303dbb3ed514cfU,
  0x3e62c32b3e00eeebU, 0x3eda97923e346342U, 0x3e2698313ea0d155U, 0x3d4625893e9c152dU,
  0x3e173f183bf01b4dU, 0x3ee89a47bd18ecbeU, 0x3d99bdfe3eae2a95U, 0x3d9d4bee3e157231U,
  0x3e0dd4273dbe2422U, 0x3e66af193dad8177U, 0x3d8895443eac380aU, 0xbdbc0b923f052c55U,
  0xbe38e2793de7eebaU, 0x3e0884f1bc6376f1U, 0xbd58d7623eaf3a60U, 0xbc9cdc1c3e39d00bU,
  0xbdc2df873ebe81f2U, 0x3e32a0f03d822208U, 0x3e3a14583e8cf7c9U, 0x3dfcf6973e5572a9U,
  0x3e64e12b3e8d0c13U, 0x3ea3ee293e422409U, 0x3c5324c73ec5e992U, 0x3d24fd5b3d865d36U,
  0xbe43016b3e8d6172U, 0x3ea17e5e3e278703U, 0xbce448573e744cffU, 0x3c06b3da3d0707d1U,
  0xbd6e07bc3e6d085cU, 0x3edc44813e0ca89cU, 0x3d2ce8833eb7af9cU, 0x3b8c075a3f1a4312U,
  0x3df0ceb93e89fa4bU, 0x3ec27267bdb063f9U, 0x3dafd2c13dfaace6U, 0xbd0d55d33ecc76adU,
  0x3e9b00683d4cddcfU, 0x3f13db2cbc59b5b4U, 0x3de064e13e960455U, 0x3dad08793e9d82ddU,
  0x3e8255473e2e879dU, 0x3f2abc7bbd744682U, 0x3db0bca23e808ba9U, 0x3bb53bd83f0f11b3U,
  0xbe4af98e3cb03ebaU, 0xbf21373bbd3fd5d3U, 0x3dfa25eabeca451aU, 0x3e68498cbe6c4443U,
  0xbed9987d3dacb743U, 0xbd9992953d5d2250U, 0x3df0cb3dbf1877f2U, 0x3cbf54bfbe532561U,
  0xbea84620bcacf0e7U, 0xbdc59880bc50cc80U, 0xbdc124e2be9c1e1aU, 0x3e494bd3bd2eb935U,
  0xbe0959bc3ccec6bfU, 0xbef6dafabdbdade1U, 0xbc1063adbe9b9b01U, 0x3dfb7d33bc5617d9U,
  0xbe848a0bbd3d06d1U, 0xbf19c0a63d4d6b93U, 0x3d5a1593beef5905U, 0x3dd7892abed6be6cU,
  0xbeaf84283d022b49U, 0xbeaf2b2cbd1c68aaU, 0x3dba45fbbeb788a6U, 0x3cea0a7ebecdd8f3U,
  0xbe052ea53d25db3dU, 0xbf23a0ddbdeeeeaeU, 0xbbb5ff4cbe53f886U, 0x3e6cfe44be4dd368U,
  0xbe70a056bdad7d66U, 0xbefee7cabc947e76U, 0x3d858813bf3b2060U, 0x3e3b918abde0c4e9U,
  0xbe7a525bbb418af1U, 0xbf83c9e53cf433e4U, 0xbd43c31ebda05798U, 0xbc89559bbf04a7e2U,
  0xbcd8c05fbe58a097U, 0xbf64e8bebb249f33U, 0xbd5191edbe0bcc9fU, 0x3e7a17c9bf23c706U,
  0xbd2ee34bbc50df6bU, 0xbe2c652cbdd9f49bU, 0x3cb28301bf25792aU, 0x3e5a9e5dbec36776U,
  0xbe05ba29bde08e26U, 0xbe98e3cfbcba194cU, 0x3d94294fbf06d430U, 0x3de87abfbe8c1691U,
  0xbe15031fbe43cbdcU, 0xbeedb3fcbe16960cU, 0x3d656e0dbe7ca930U, 0xbd81c5573c3ad742U,
  0xbe6425bdbe290e01U, 0xbf2933f43cb70d9cU, 0x3ddb73c3be7a21cdU, 0xbd11981cbe22b563U,
  0xbe436db3be0b13eeU, 0xbddb963bbdc6aafbU, 0xbd017155bf03949dU, 0xbc18695ebdc187d9U,
  0xbdf6b983be693f08U, 0xbe6dc334bca7b1b2U, 0xbc757e8fbe88bba5U, 0x3d6daa423df836f7U,
  0xbeab9ee4bd616096U, 0xbf2af64abddc8e99U, 0xbcdbd81bbe8055b3U, 0x3e1c32dbbeb226c3U,
  0xbe1b27dfbdc39317U, 0xbf1639b7bdae03f3U, 0x3de76e273d1f8cbcU, 0x3e5756aabea73fe8U,
  0xbe9226c2bca700f5U, 0xbf034bd4bd8de1d7U, 0xbd1abb84bf21e845U, 0x3b937e06beac7d5bU,
  0xbdcc61cbbe25c486U, 0xbf033fb13c533bddU, 0x3dfe0fddbe86198eU, 0x3e600fb2be72d90eU,
  0xbe90e343bd7c4ee5U, 0xbee5acaabd0e4fc7U, 0x3ae012d0bf46aecaU, 0x3e1199f2be6c4370U,
  0xbebd23e7bd9d3da3U, 0xbeea9a39bd890c74U, 0xbd286b14bf1f97f2U, 0x3e316d62bea6b6fcU,
  0xbe295c6a3d82c46dU, 0xbe86db453bd48cd9U, 0x3d762285bf065701U, 0xbde2bca0be077486U,
  0xbda7c6d6bdb41bf4U, 0xbea26d2b3c58c23bU, 0x3d8d9018bef2ed5bU, 0xbcaa8861bea48375U,
  0xbe04eb59bca9ff3dU, 0xbeea0487bc9021e5U, 0x3da8fdcbbefef90eU, 0x3b9e5510bdeaa2bdU,
  0xbe3d23dc3d2aaba1U, 0xbeee67b33dcf61cbU, 0xbdaeff4bbef42d8fU, 0x3c965b57be581416U,
  0xbe42f1fa3d4bf1f4U, 0xbf2b02e53d7ea431U, 0x3d9aecb1bee3cbe4U, 0x3dfd5976bea6b2ffU,
  0xbe7827c5bd0bbf60U, 0xbeda6ed8bd7907aeU, 0xbd473b11be9088ceU, 0x3df8d169befde17dU,
  0x3d3f33a1bddba2efU, 0xbecf43343dfc0e8fU, 0x3e479c02beae18c8U, 0x3da10313be9ead45U,
  0xbdb712efbe1df43dU, 0xbef494453bf8b09bU, 0x3cb3ba6fbebad421U, 0x3e00c094bef9560fU,
  0x3d5b678dbe128de5U, 0xbf5ee190bcdd6dcbU, 0x3b267d8ebd8989f7U, 0x3a4ee49cbf23c097U,
  0x3d7a138cbe233ef9U, 0xbf51cf9e3d038a1aU, 0x3d8531e5bea0cea0U, 0x3e057a08bf0248f2U,
  0xbebf984fbdf853dbU, 0xbf1b964a3d26eb10U, 0x3e254ee6bed7144dU, 0xbd8e9ff7bef897f7U,
  0x3d4a8f32bd40a899U, 0xbef95c193dc92512U, 0xbc3b8f64bed80430U, 0x3c2f65dbbea4cc9bU,
  0x3c3da0a7be679997U, 0xbf286082bd689c2bU, 0x3d1e4814be884677U, 0xbda3e913be9f5603U,
  0x3d096663be8b9f67U, 0xbea561e23d8557bfU, 0xbdae6790bed4feffU, 0x3e1a1f2bbea8c3f2U,
  0xbdfed735be1589e5U, 0x3bc1454c3bd753c5U, 0x3d50b132bf1e408dU, 0xbb6ec771bea1e087U,
  0x3ba8a9aebdbbb7d2U, 0xbeae53a53e368c3aU, 0xbd177279beeb21c2U, 0x3c6df0d9bd2bc4a0U,
  0xbb4c4460be28e919U, 0xbf2163c2bccc6f42U, 0x3ba9e5a7beada781U, 0xbdcd5462be4cf472U,
  0xbd97b8a7be35ec68U, 0xbf6d2d233de61c8dU, 0x3e08b258bd0bb6eeU, 0x3e14423bbedc8ca0U,
  0xbd0eb722bdeff5dfU, 0xbe9c05e7bd386dd9U, 0x3e082836bece2779U, 0x3e597b9abefbe399U,
  0x3dbfab6bbe4d7550U, 0xbea04e123e152333U, 0x3dd4ed97bebe40d3U, 0xbdf207a3beecd1c9U,
  0xbcb34261be3eb055U, 0xbf0f94fe3ce9e662U, 0x3dc73097bdd256ccU, 0xbd29c241beadfc18U,
  0xbdad6b78bdb0de3eU, 0xbf54ee2a3e35fb71U, 0x3e350348beb2cb95U, 0x3cc35c82bf05493bU,
  0xbdb22c533d847781U, 0x3ed30e2e3c576410U, 0x3d405b953ed3f362U, 0xbd40fd313e43e4e6U,
  0xbc56b4723d9bee99U, 0x3de5e382bc216671U, 0x3d3582043efb0f3aU, 0x3d6e39453ed2b335U,
  0x3daa76a53d7a56fdU, 0x3e7695f83d11afdeU, 0x3e4acb303e9af7d4U, 0xbd3728e03eab711dU,
  0x3e82bc7c3e421888U, 0x3f15e346bd2c92f2U, 0x3d902ea33e7166e1U, 0x3df3cb2b3df39d5eU,
  0xbc08c135bd91bbf2U, 0x3e992cd13e042cdbU, 0x3e1193213ee6db05U, 0x3e085e853f0abc98U,
  0x3e002e2a3d24f819U, 0x3ecdefa13d7769beU, 0x3dcd0cbd3e99984eU, 0x3dda11983ef437daU,
  0x3d8eebbfbd6a7affU, 0x3dc8d1913dad62e1U, 0x3cc558e63ee8a1dcU, 0x3dffef933efa01e1U,
  0x3df9e1743dcc33edU, 0x3e07a2a23e6368d5U, 0x3e1c2a9d3e7bed36U, 0x3dd2e8403f19eb97U,
  0x3e240bc9baffef19U, 0x3f04590c3d4b061bU, 0x3c94cabe3e784eebU, 0x3e08862d3f372c15U,
  0xbb8e98863df8e911U, 0x3e8d0f323e1293a0U, 0x3d63b3923eba55cbU, 0x3d3841313f0d964eU,
  0x3e40ca803e38fd3aU, 0x3e338b0a3e75f09fU, 0x3dec62833f1c1ebbU, 0xbd9761c13f16fa88U,
  0x3e0d494a3d88d225U, 0x3ee70179bd229f78U, 0xbc376bd23ec5c051U, 0xbd4d27073e6cbf9cU,
  0x3cd1f5123e6b513cU, 0x3e7e4ba53db5a742U, 0x3dcd7ef43e350e5fU, 0x3d6be1b63e85185eU,
  0x3e0595063eaa08d0U, 0x3e242702bcb852d6U, 0x3e484baa3e73e52fU, 0xbd0b5d4b3f05d4ecU,
  0xbbc129153de79514U, 0x3d931bfabbacd69cU, 0xbd5f148f3ea62ac8U, 0x3b9ca0813ed13251U,
  0x3e07f0ec3e881f29U, 0x3e9808c63d7ed9e7U, 0x3e1f933e3d8016f7U, 0x3e0faad23e6d0ddfU,
  0xbb9f99cd3eae2d3bU, 0x3dc6eb283deec7b4U, 0xbcb01bb03ea95f79U, 0xbbcb8a063ea95d66U,
  0xbe9cbdfc3e157e93U, 0x3e0633e23d157392U, 0xbbb8d2393d688676U, 0xb9e44d1bbdb87ca2U,
  0x3e15c09b3e9b6658U, 0x3ebf6c45bd9bf7c2U, 0x3cd6ad453ee22329U, 0xbcd46f3a3f0b855eU,
  0xbd615e033e3ca5ffU, 0x3d457e9ebd98640cU, 0xbd19d930bbd725caU, 0xbd657cd73edfe0f9U,
  0x3d82dade3e5784ebU, 0x3ec5efaebd9ae924U, 0xbd79958b3e45a150U, 0xbdbc6f343ee55fe6U,
  0x3e585a7c3e72424cU, 0x3f234136bd6eb41aU, 0xbb4bcdfe3e90a752U, 0xbd668c5e3f42f07fU,
  0xbf07d4233d2d67deU, 0xbda218813dec5838U, 0x3e411dbebe33a24eU, 0xbe01d297be442624U,
  0xbf08b8873d8ae696U, 0xbca005b13e22770cU, 0x3db9bd41be5c6338U, 0xbe9c71aabe460a68U,
  0xbeaaf3f53e4a67d1U, 0xbd22ccf73e392ad1U, 0x3e92b2af3ba4f2c2U, 0xbd836c4cbdfa32d8U,
  0xbedeb5d93e2de77dU, 0x3c15719dbc1c4b64U, 0x3dbff62ebc107f53U, 0xbd995879be638057U,
  0xbebbbb5b3e355782U, 0xbd02476e3acbdfa2U, 0x3e1e4ef2bd8cabfcU, 0xbd85fd86beb0e6adU,
  0xbeabee423e73e31eU, 0x3db139553d30acffU, 0x3e89f1b5bda20946U, 0xbe152a91bd881e4aU,
  0xbe64b20c3d3a919fU, 0xbc75a1d43d5f0558U, 0x3dea0cef3cc57d1bU, 0xbe843647be7b5903U,
  0xbeb78aba3ca9b0b3U, 0xbd3ada4c3df41069U, 0x3e7cf0a5bc6b7132U, 0xbe5d17eabe8b5bc9U,
  0xbeb789ce3d58b167U, 0xbd3c57073c8725c4U, 0x3ea53c6bbdafb72fU, 0xbe71c0f7bebf78a5U,
  0xbdc31a833e2f9f59U, 0xbe9f83c6bd11b122U, 0x3e3427b7be5e058aU, 0xbd37afbdbec18d92U,
  0xbeef72af3e33d8fdU, 0xbd66d7203e0a8729U, 0x3e42d486be359cb5U, 0xbddd7b98bec72611U,
  0xbebdce533d8d5041U, 0xbc1739e23e41f19aU, 0x3e37bb7dbdf9d3f3U, 0xbe6a7d98beb8e876U,
  0xbee767713d85353cU, 0xbd02c4073d04e823U, 0x3ea00898be26548eU, 0xbea42940beae25e3U,
  0xbea1f1d63dcf53b1U, 0x3cade1fabcf1db6eU, 0x3e51a053be093782U, 0xbe1cca50beb72b17U,
  0xbedfe3393d2d020aU, 0xbd74f9febd987782U, 0x3dc4de77be707bf1U, 0xbe51b61ebe32a2b3U,
  0xbdccdaaebc390ac6U, 0x3c6645573e180812U, 0x3e980016bdc28cdbU, 0xbdf28ab0be45076fU,
  0xbec95e593e457aeaU, 0x3df46878bd437355U, 0x3eb6b70abdbd0593U, 0xbe3cd758bdca4759U,
  0xbe89fa343e42ac9dU, 0xbd3cdbdd3dcff90aU, 0x3e1b5355be462759U, 0xbe7f866ebf012f59U,
  0xbe259afe3dd98594U, 0x3d2164de3d50a8efU, 0x3eb68ee5be03c00cU, 0xbe9d472cbea41a5eU,
  0xbea2548fbd8b7d75U, 0x3d955ecfbdd175e8U, 0x3e08e43a3d1c2f35U, 0xbda61968be16b008U,
  0xbf0e5d7d3e13eb5eU, 0xbe27bcc93dcec523U, 0x3e103078bcf3548bU, 0xbe04b057be824aa6U,
  0xbf186ae7bc367049U, 0xbca175863e03ec54U, 0x3deb87a1bd5d77ecU, 0xbceebe2cbeb66394U,
  0x3ef270893e30208eU, 0x3dee17203e915a35U, 0x3e6b6907bd9cb606U, 0xbdd1a3b2bbc34a71U,
  0x3e96e4a43b5cb8a2U, 0xbde55d523e00feafU, 0x3e12a52e3dc1a892U, 0xbc8eba113d46bf08U,
  0x3edc5ea93d269814U, 0xbd023e653e06b026U, 0x3e483cae3d85bebdU, 0xbc9693dcbe0220fbU,
  0x3e00ac4c3da30902U, 0x3c280effbb856d6aU, 0x3e1471d43e03c33dU, 0xbe8ac2b8be1bc9c3U,
  0x3c06bfc6bac8a4bfU, 0xbd9eeeef3e81a339U, 0x3eaaffb13d5bfd39U, 0xbde390edbea5e84aU,
  0x3dfc05d63dbd1edeU, 0x3e346ec53e5a2452U, 0x3e4b6fa03b53d02aU, 0xbdf6f7de3cb12830U,
  0x3ea52e033c8ecccdU, 0x3de234753e406700U, 0x3e5f31e33cb1c0efU, 0x3d613e87bdebd449U,
  0x3e952ccb3e118013U, 0x3d849caf3e0c3660U, 0x3eba1f30bdd26b0eU, 0xbd986012bea7b04dU,
  0x3ea36aed3e46052cU, 0x3e2236b43d83e3f3U, 0x3efdbe94bc8b963fU, 0xbe0bfc8dbe121a74U,
  0x3e006c5c3d0541b3U, 0x3db28df13db2f16dU, 0x3e8e21c23de908a0U, 0xbe0cc1cfbe0352a4U,
  0x3e806c713d88c2a8U, 0x3df227dc3e29a589U, 0x3eb502803d51f0c5U, 0x3d8b7214bec936f2U,
  0x3e55f2753d25eb49U, 0x3dfa3b2e3e8398eaU, 0x3de9fc88bd8b5c73U, 0x3d9bdc27be7447ceU,
  0x3dbd9a8b3cdeb6d7U, 0x3d88506e3e970fdeU, 0x3e54aee5bdf28c5dU, 0xbd3815d3be8391daU,
  0x3e3abd8cbc187fc2U, 0x3dbde2633e904d18U, 0x3e6f85a53d183759U, 0x3d171377be23f70eU,
  0x3dfe7bec3e2ab106U, 0xbd5434a23de5d23dU, 0x3e6525343cc91230U, 0xbe07a0efbdd40000U,
  0x3ebe46523db28a8eU, 0x3e15ff9d3de5697aU, 0x3e5ceef7bdb628dcU, 0xbd2dda1fbd1999adU,
  0x3e0ca9ec3e3f000dU, 0x3d894e673e4d80d2U, 0x3eddc033bd2930d9U, 0xbe1b9b5fbda7cf11U,
  0x3e428bf53e103b18U, 0x3d44e5603ea74cf4U, 0x3e4ac0eabe0a45e1U, 0x3e0747e7be57d091U,
  0x3d8f503f3e3553d1U, 0x3d8696683cf7a4f6U, 0x3e32dbd7bd35510fU, 0xbdb5b957be7763d9U,
  0x3ea385e33c615edfU, 0x3dc6b37e3e8b3d47U, 0x3edadabc3d3d04f9U, 0x3dec93c8be7b4ce6U,
  0x3d889df2bd580374U, 0x3e32980e3ebe6037U, 0x3c4fa1e9bc4453c6U, 0x3dbcc19fbe8fc156U,
  0x3ebbb31a3d2fff9cU, 0xbc7bb7d23dbd1830U, 0x3de507093d7d0d71U, 0xbe677951be99a990U,
  0xbea632b23db10aa9U, 0xbf449756bc88097eU, 0x3d9a8271bf53f065U, 0x3d82c263bd2c173cU,
  0xbea317273d9b2c1cU, 0xbeb0f2113d945124U, 0xbba3416cbf2ec741U, 0x3bd19601be404d2cU,
  0xbea693bbbe1b020bU, 0xbee8f1c43d07a02aU, 0x3dd1d48dbf27bb38U, 0xbda99ea7bdd29844U,
  0xbe896008be09cd5aU, 0xbf4b2d31bc1e585dU, 0x3dfae24fbf0be644U, 0x3e449aa0be31b59eU,
  0xbe956db0bdfc7179U, 0xbf43d24c3db545f8U, 0x3d946e9bbf2b74d8U, 0x3e37578bbe675634U,
  0xbe78b962be3066cfU, 0xbf23553d3d133f8dU, 0x3de1dc43bf1210fdU, 0x3e60f692bf0bd820U,
  0xbe0c48bcbe48f8a4U, 0xbf6446ee3d5dcbceU, 0x3d9feb6bbec1b121U, 0x3dfffa01be0d4ef0U,
  0xbe592121bd27ce7fU, 0xbf5b03f13d3be2e6U, 0x3d9c144ebf3d1c7cU, 0xbc56b2cabecc5161U,
  0xbe1d926ebd7143caU, 0xbf8fc77d3ce9663dU, 0x3d4770d8bf04cf05U, 0x3d892240bf075f8eU,
  0xbd9d7c82be51666fU, 0xbf9625a0bc81e884U, 0x3d8d5fc1bf2b9a33U, 0x3db6901bbf0ed8f3U,
  0xbe0eea8bbd88aff3U, 0xbf71a7db3cb9cc7fU, 0xbd96fac6bf540a80U, 0x3e27fcdcbf258c6dU,
  0xbe7339f6be7d70d1U, 0xbf26e447bb877a07U, 0x3ddd71edbf911e05U, 0x3d8b2659bcf044eeU,
  0xbe3e5a96bd6b4a6fU, 0xbf22c4b5bde4169fU, 0x3e11cf7abf7afdc3U, 0x3d940cfcbd87a694U,
  0xbe2193b4be7d0499U, 0xbf4b4174bce3a089U, 0x3d103200bf2f14e8U, 0x3d66ff0abe93407cU,
  0xbe7f28d2bdff8480U, 0xbf060cf23d593ebeU, 0x3d3fb608bf74e54fU, 0x3e0bb75dbe9db2edU,
  0xbea9dd81be1bb34dU, 0xbf06dddfbcf38e73U, 0x3d9367ddbf3eec93U, 0x3dcdb314bd4c4d4aU,
  0xbec035e53cc04b46U, 0xbf68cd85be43ed39U, 0x3e4034edbee80787U, 0x3dcbbf19bec0d73eU,
  0xbe396013bd04b4adU, 0xbf77a20d3d471413U, 0x3e1908d7bedb95c6U, 0x3d19d200bee2c5a1U,
  0xbeb91328be49aff7U, 0xbf2781c2bb08a8baU, 0x3d98b078bf61f7e9U, 0x3e27989cbe82b272U,
  0xbe53858abbf78c0fU, 0xbf51a3a9be109d66U, 0x3dde0bcebf68d75aU, 0xbe091347bed6de5eU,
  0xbe7c604b3d89e3beU, 0xbf51db753dea64d6U, 0x3e0e9b7ebf834855U, 0x3e15fe4bbeaf206bU,
  0xbeadb9b63ca7f382U, 0xbf2eece2bcb4c617U, 0x3c3e2422bf6c09a8U, 0x3e10ca3cbed44733U,
  0x3e537de93c8d35d5U, 0xbd55f8163e27b950U, 0x3e3ce2a8bdcc76c9U, 0x3dd8068fbe8a40ccU,
  0x3e4ea4533e58d18bU, 0xbd95596f3e3cefb0U, 0x3e0346c63e06f590U, 0xbe0c2baabe4c841bU,
  0x3d3dbdb73da3b4d0U, 0x3cab95f83e22aae2U, 0x3d85fccabce0d4d6U, 0xbdc6453abe9ad174U,
  0x3d1fc6593e0e6af5U, 0xbd3f6cfb3e49d8bbU, 0x3df31491bd7b1eeaU, 0xbdec9af6be9cf854U,
  0x3d2ec1093e184430U, 0xbdc0b89c3de7d79aU, 0x3e08009bbda75b04U, 0xbde78ae2be2cad36U,
  0x3db672d53dca3631U, 0x3e3f886b3e4f8c31U, 0x3ea700fcbc42c128U, 0xbdbd2bd1be544ae3U,
  0x3dc0c9753e06ed9bU, 0x3e45dc2f3e5598d8U, 0x3e239d13bdd99f5cU, 0xbe024178be765495U,
  0xbd4300cb3e5221abU, 0x3dc8888f3debfdaaU, 0x3d96691dbc6c89feU, 0xbd886253be8dbe1fU,
  0x3d3b98c23c79ae20U, 0xbd34fbcd3d8c27eaU, 0x3ea5bf40be00b9bfU, 0x3bcdfa3cbea54aedU,
  0x3e1486803d437bffU, 0x3e120ba43decc70fU, 0x3e219abd3cd1cd51U, 0x3b286805be306afaU,
  0x3e0ef3093dd98734U, 0x3dda88773e8d8614U, 0x3e51117ebc4702f7U, 0xbe2d2657be2a9181U,
  0x3e394112bd1789ecU, 0x3e0b7a733e0173b2U, 0x3e535a29bd4787bdU, 0x3d2ba4b1be23e0a6U,
  0x3e715bc0be2bb39fU, 0x3d351b173e1279ddU, 0x3eacbe2d3de834b5U, 0x3d880945be333ff8U,
  0x3d12a158bd8135cdU, 0x3cdfde913e5b30d1U, 0x3ea084ddbe02864fU, 0xbc8e780dbea24061U,
  0x3e632fc43d852913U, 0x3e373b6d3e3cd508U, 0x3e63ad98bdeed37eU, 0xbc38fdb2be29ed78U,
  0x3d906808bdf26bb1U, 0xbd0058213cba7091U, 0x3e62073cbcf6c686U, 0xbde3b099bdc6aed3U,
  0xbd7b36dabd18169eU, 0x3e3c04a33e2b7b10U, 0x3e347304bd7c4553U, 0x3c8914c5be962517U,
  0x3de151703e1d85b0U, 0x3e0a7d2d3e9d157cU, 0x3eb637fc3bb879caU, 0xbdf41100be498ac9U,
  0x3e882d9a3e615fb7U, 0x3d1a59dd3deb0528U, 0x3dcd00b53ca49d0cU, 0xbd618674be1cc9d1U,
  0x3e248c753dff107bU, 0x3df43d003d2f582fU, 0x3eb4f63dbbe15510U, 0xbd1662f0bdf957b3U,
  0x3b5e48c13d9aee63U, 0x3df2b3013e6f6339U, 0x3d5c8ae9bd98909fU, 0xbdc5b9d7bd84dfc5U,
  0x3e07cf8c3e0f865eU, 0xbcfade1a3d817d79U, 0x3e65663d3e0e92f4U, 0xbd2cbfb1be0bc158U,
  0xbee380ec3e5b3471U, 0x3e4e298f3e510e96U, 0xbeb0ae703e6332dcU, 0xbee5cde33e5e6917U,
  0xbedad2c53e46fdbcU, 0x3e94497b3e4da09fU, 0xbeb6be7e3e22757bU, 0xbf24459a3c480fa8U,
  0xbea39c653dec8480U, 0x3e48b1703e13c0d4U, 0xbe16d3ff3c545c89U, 0xbf2caaf03d258536U,
  0xbe818eec3e546772U, 0x3d8012bd3d285b77U, 0xbe8b78c73db70e58U, 0xbf162bd53ebc28d4U,
  0xbe1b7f353e028a3dU, 0x3e6aeafe3e3e1426U, 0xbe8efc1fbc7ce4a2U, 0xbf00d3913ea247d0U,
  0x3cddf7c63e365f54U, 0x3ddcb56a3d88bbc9U, 0xbe2c70903e534082U, 0xbef0bcbe3e9da2bfU,
  0xbe0ba2ad3df7a469U, 0x3e3378383e9e5dd9U, 0xbe4d4a903eab63e5U, 0xbf26de763e6d72afU,
  0x3d6edf7b3d4de667U, 0x3e6561b73dabd346U, 0xbe6a7c133e525879U, 0xbeda47233eacc546U,
  0x3c11c92c3dcf74adU, 0x3dd0caef3e51595dU, 0xbe94112b3d7574e7U, 0xbf01d5f13dc2931dU,
  0xbeaf536abd95d43fU, 0x3e3aad183d8acde2U, 0xbe9e53973e3c79fcU, 0xbf1d3d873ee4705fU,
  0xbebf24ee3db90939U, 0x3c27811a3de6e66dU, 0xbe18303c3e2ef20fU, 0xbead4fef3ec0ca16U,
  0xbe976e353d413189U, 0x3e2daf733e335f60U, 0xbe70378f3e56beb7U, 0xbee62a833e944100U,
  0xbe5fe7493ddd16a8U, 0x3d4cf3b33e345e29U, 0xbed6d7a03ea48eacU, 0xbe8b929d3e8d8689U,
  0xbe9ae121bcefd843U, 0x3e8a70da3df340b4U, 0xbe71f9723db64c9eU, 0xbf07ed6b3e9e82d7U,
  0x3d59f567bd4e7dd5U, 0x3e99574b3de11ae2U, 0xbdc889903e09e973U, 0xbeedb64b3e9b4acfU,
  0x3d859a763db70308U, 0x3e56f98f3db59d61U, 0xbead5fcc3c77f2fdU, 0xbedae7653d6f53acU,
  0xbe0f4abb3dc9a595U, 0x3de1c3243dc82dd3U, 0xbe781e1d3d3afe68U, 0xbed367a13e369c41U,
  0x3cb49e5f3b9b53b9U, 0x3d8205203d5d6e7dU, 0xbe6e92d33e07d00eU, 0xbeae3bfd3e0e41daU,
  0x3deec91ebe5f829bU, 0x3e1bedee3d8554afU, 0xbe7135f93e8e83efU, 0xbf0e1e173da3ea74U,
  0xbd7430c63d965dc0U, 0x3d399f033df36b76U, 0xbe91364e3e4d3a04U, 0xbef8ec7a3e5eb135U,
  0xbed83b3abb8af926U, 0x3e1f261b3e0f065dU, 0xbe3045733e2e8314U, 0xbef6d9d63e0629f5U,
  0xbf340957bdcbcb6cU, 0x3e10db6c3e670f69U, 0xbe237f643e317c2aU, 0xbec82dde3e7a18ecU,
  0x3de4169bbdbc458eU, 0x3da454173e732661U, 0xbe05f1dcbc93f522U, 0x3e3c453fbe33d032U,
  0x3e29679bbe45dfe2U, 0x3d4bcf8f3e149e72U, 0xbd6f7695bde8d198U, 0x3d6e2270be1a9378U,
  0xbb53b5b83cc98ebbU, 0xbe162b8e3eaa7601U, 0xbd9764fbbdebfb8eU, 0x3d2290b13c4e66e1U,
  0x3d0dd37abe521ee6U, 0xbd7e89833e962fc7U, 0xbe0aa07b3dd06614U, 0xbd2b0dfcbc96fb16U,
  0x3dc0dfa8be468de1U, 0xbe0ed10e3e9cde6dU, 0xbda07fc4be006f0bU, 0x3d032910be156f00U,
  0x3d9b74c5be436d7cU, 0xbe2978623eb28650U, 0x3d36f711bd975d60U, 0x3d1768c4be393525U,
  0x3eb2d64fbdc26572U, 0xbdcf75f73e09aa81U, 0xbe49f1d63da3c7a8U, 0xbda731c5bdbee4eaU,
  0xbd9d233fbe5c73e8U, 0xbd2f85013d0f04f7U, 0x3cfbb6773ca8a8b6U, 0x3e46bf8fbdee789dU,
  0x3e889420be5fdff0U, 0x3ca0d5473e1f6e56U, 0xbdf22ea13d3b290aU, 0x3daa5aafbe835342U,
  0x3e63a9cbbe92d739U, 0x3da302253de013e7U, 0xbc19c044bcdd486fU, 0x3dc1316fbda14fe3U,
  0x3e48a2efbe0844b3U, 0x3d0ee7be3df82fb6U, 0x3e185815bde97b60U, 0x3dec0165be50d3ddU,
  0x3c804a7abdcc83d9U, 0xbd81f0623e9b04dbU, 0x3e33a9aebd5f3859U, 0xbcae4d8dbda342d7U,
  0x3c923efbbdd56c89U, 0xbdc199593eb19e57U, 0x3d8c85e63dc1257bU, 0x3e204142bd77a59cU,
  0x3d3526dbbe431442U, 0xbd3c4e593e95f7aeU, 0xbe754f0abd27e318U, 0x3dc2b8c6be0e5287U,
  0x3e4fc56fbeb27bf3U, 0xbd730a9c3e23dc2aU, 0xbe05dbe23d77a27dU, 0xbd19d1c53c47ea27U,
  0x3e0dd90bbe14c3f2U, 0xbe0801a43e58cdcdU, 0xbd850133bd868ae7U, 0x3dd5fb45bdcb8815U,
  0x3d76c3bebe9fea7dU, 0xbd362fb83d3385e5U, 0xbda69f58bd890f84U, 0xbdef347bbc4029b0U,
  0x3e169416be9203ecU, 0xbe38a7db3eb48fd7U, 0xbe3c61263d71bcd6U, 0x3dd579f23d7071e8U,
  0x3e719399bdd6066aU, 0xbd90563c3eb78f63U, 0xbe1ba3a1bd16c719U, 0xbd95bc28be806088U,
  0x3e8fcacabe4552eeU, 0xbc9b2a423ead3508U, 0x3d781de03e6284ccU, 0x3c8bd03d3bd44bdaU,
  0xbd3f4992be44bddfU, 0x3dcb36ee3e3511ecU, 0xbde5ae5dbddb0fcfU, 0x3dd03d8d3c2c411bU,
  0x3d928cb0be88240aU, 0x3d105cf93e5d1307U, 0xbdd1957abdf7f637U, 0x3dfe21cebccdfe3dU,
  0xbe92428dbc51f7dbU, 0xbf46a5b13d9da77fU, 0x3daba5ecbf4a5e83U, 0x3e290573be4ac387U,
  0xbeb6a23cbd359f9dU, 0xbec2a15e3cb030e9U, 0xbd371bbbbf4f3c32U, 0x3e495273bdd89a6fU,
  0xbe9fe2fcbda3601bU, 0xbf00ad6cbc8607daU, 0x3da3d14ebee9cda0U, 0x3d967a39be5562c9U,
  0xbea04150be4b8a99U, 0xbf3c7a1fbd3a1730U, 0x3c9bcf61beefc517U, 0xbddbe3373dd49bceU,
  0xbdd74fbc3c7ff5a1U, 0xbf2e7aa0bcc6a5aaU, 0x3b48c920bf16e5b8U, 0xbd8b56ebbe079000U,
  0xbe928979bd9e667dU, 0xbf224b4dbde81385U, 0xbd0877e7becf456fU, 0x3cfc04c7bebca0eeU,
  0xbe4eddd1be4c1c2fU, 0xbf1f32833dc0a997U, 0x3d0754fabf00e856U, 0x3c5940b7be06ad40U,
  0xbe1aab9cbdc9c649U, 0xbf352a7d3c8b90abU, 0x3d85fa1ebf37aed9U, 0xbe4f7310be5db7b5U,
  0xbe3d7bb9be4a160bU, 0xbf78df8b3ce6f1ccU, 0xbd87c39abe94c2f6U, 0xbdec08bfbee1404dU,
  0xbdc15872be32e13fU, 0xbf6fa1bfbd73caf8U, 0xbcf1ea63bf006649U, 0x3e088231bf264980U,
  0xbea5ccf0be21a006U, 0xbf1942b53c5315f5U, 0x3e20c698bf4943c2U, 0x3e23785abf33e199U,
  0xbd694e65bd16b0d8U, 0xbf00e678be01d2e3U, 0x3bf9790abf6726dfU, 0xbe0f8540bd12b5c3U,
  0xbe074691be790973U, 0xbf11dbffbc99bcbdU, 0x3c9726f5bf6f15edU, 0x3d8f5f43bde9d9a4U,
  0xbc9ae22dbde8ae07U, 0xbf7e6a233b8ed922U, 0x3d20f768be9798aaU, 0x3e04e3b2bed954d6U,
  0xbe861ab4be15bd13U, 0xbf003eee3c90c716U, 0x3dada8b0bf39bf07U, 0x3dc91cf3be6bebbbU,
  0xbe855e53bc94fd20U, 0xbf2576c63da16422U, 0x3e24ebcdbedc205fU, 0xbdee54b4bda7579fU,
  0xbe8b3ccebe014029U, 0xbf3f2624bdfc954aU, 0xbbd19678bf4fdca0U, 0x3de7815cbe2d7c79U,
  0xbe5c95fbbda41854U, 0xbf27e80dbc9860d9U, 0x3e1287debee96411U, 0x3dfdf2f9bea9f3afU,
  0xbe6babca3d2abb52U, 0xbf096c8e3dc3c79bU, 0x3e1c468cbf8c6d62U, 0x3d95f3cbbe8339e5U,
  0xbe51b39abda6a834U, 0xbf002190bd81ac8eU, 0x3dfc6f85bf549c90U, 0x3c7f53a2be889fe2U,
  0xbeaf56b43e03737fU, 0xbf3dd6de3d5cc43aU, 0x3d819a0cbf852cd7U, 0x3d1a04afbe9ca6a5U,
  0xbed752d63d34191eU, 0xbf2926c03d5045dcU, 0xbcca1db0bf2cc62dU, 0xbddbb69fbeaa8b37U,
  0x3d13528a3d861210U, 0x3d6ca5cbbd91effdU, 0x3e1844eb3e995675U, 0xbe5886bb3e2f6380U,
  0xbd805dc03daf0a67U, 0x3e8208ec3b117718U, 0x3ddb79d03e489c51U, 0xbc5288e53d8347f5U,
  0xbd452ef3bb2e62a8U, 0x3da39d283de54febU, 0x3e6d47e43d902323U, 0xbe2353093ea316bbU,
  0xbdabe4e03e171767U, 0x3e3718023dcf27e7U, 0x3d157ff3bd692bd8U, 0xbe3b26293e76eb23U,
  0xbc9d4cd43e5e9cdfU, 0x3e2ce3a33e4a5ad8U, 0x3e4864fb3dd5fbedU, 0xbd938bc63e251c8aU,
  0xbe1cc1723cac0e5eU, 0x3e802715bdf0bb38U, 0x3bc5b7993e93c19cU, 0xbdc9cb1c3e9c9d89U,
  0xbeb9c22b3e9edcf0U, 0x3de15c59bcfcf819U, 0x3e2d1bd63dfd048eU, 0xbe7dc4f83ea6a38fU,
  0xbe5c5cb43e8cbbb2U, 0xbb7f529a3e7b743aU, 0x3dbaf1233eafb6f9U, 0xbe4841403e26e67bU,
  0xbe839ea23c3f509aU, 0x3ec173403e2155b5U, 0x3e379e7e3ea1395bU, 0xbde9dabc3e0f72d4U,
  0xbe93bc733da9c03aU, 0x3e75b0093dffb9d9U, 0x3d0e03ff3d6bdeefU, 0xbe3b12f43e082978U,
  0xbdbd54633e40b357U, 0x3e83ab5abe0802e0U, 0xbbec8ece3e9b5c54U, 0xbd1509b23eb4cb13U,
  0x3cf44efe3da2ee04U, 0x3e68ff88bd701f9aU, 0x3e17f9773d43aac2U, 0xbbdbef5f3e7ae868U,
  0x3d41c7903eb5283eU, 0x3e86330e3d92875fU, 0x3d8b26cabd222203U, 0xbe1c68ef3dce3b6bU,
  0x3d533aac3db5e0c1U, 0x3e8a571e3e022982U, 0x3dcf83963e9d7d5fU, 0x3cdb04c13e98acf2U,
  0xbd7ce20d3e51f59eU, 0x3e051cc23d28ead3U, 0x3d63a8963e2cd7e1U, 0xbd3518183e5cc725U,
  0xbe90a77b3ece26c0U, 0x3e18df703dad4389U, 0x3e46ceba3e60b096U, 0x3d85f5183e37052dU,
  0xbe150bf73e81373cU, 0x3da148b23dac0dcdU, 0xbb11966d3e0dbf1bU, 0xbd69f2473e911a07U,
  0xbe452e4c3e06833cU, 0x3e1a77b23dbcc31bU, 0x3ced51cd3e1c53a5U, 0x3d80bf8a3e0e88caU,
  0xbd3d414d3dad8217U, 0x3e6ed2703d080f4dU, 0x3cee93b73cdf3fa4U, 0x3d2bc59a3eb61844U,
  0xbd8b0c313dad5183U, 0x3e92d85fbcd4724aU, 0x3e4240c3be00627bU, 0xbe5426a93e55449bU,
  0x3d4466043e769706U, 0x3e58e6e5bdd6828cU, 0x3db8c28f3e0d5424U, 0xbe21c8d83e870d60U,
  0x3e3f80ca3e3736a7U, 0x3eb75064bcf4d90fU, 0x3c66c2713d6efaf9U, 0xbd95821f3e74b7cdU,
  0x3dd02321bcc93123U, 0x3ee25370bd2c2499U, 0x3d9c22913f05c57aU, 0x3cd99b453e5f1da3U,
  0x3e17898e3de413aeU, 0x3e6324dfbc914067U, 0x3e586f533f0cf65eU, 0xbd4da41c3eb8d8f3U,
  0x3e99a78c3e741b8dU, 0x3efae6bc3df46998U, 0x3e2fcede3f084b59U, 0x3d06a5793e2bca65U,
  0x3de70f6f3e4bbe25U, 0x3f154a5b3dfff5c4U, 0x3d2732983e944740U, 0x3d849a323e856b36U,
  0xbcef7ce73d993e25U, 0x3f05a3e03e0b180bU, 0x3e10d0053ecc073aU, 0x3d66e7c93e9c179fU,
  0x3e6b0e8b3e2b2a52U, 0x3ea1f7093c1ba16fU, 0xba24d9fd3ec08354U, 0xbce0c66b3f21169aU,
  0xbd63bd863e10086aU, 0x3ef3e5cf3e040626U, 0x3e01f5b43ece730fU, 0x3c8a16273f04c61eU,
  0x3e8c867f3e5f50cbU, 0x3f123e6abd090fffU, 0x3cbcdaf43f133691U, 0x3e0a59ed3ea1dd63U,
  0x3e7cd6ae3ca12199U, 0x3f28e6433e1e71a6U, 0x3e2014453e0d11ddU, 0xbc9e40c33f171b47U,
  0xbd7983223eb3ecbbU, 0x3ef5c965bd73767fU, 0x3d8efaf83f016c01U, 0xbc5939bd3edf9b3cU,
  0x3d4d92483d9e7a9cU, 0x3ee3e4e2bb1bfe22U, 0x3d9a75193f319177U, 0x3d86af003ed2d86fU,
  0xbc8622133e0f8b98U, 0x3eebb4a33db14211U, 0x3dd46d2f3f1684f7U, 0x3d98b60d3ead4754U,
  0x3e5ba0a23e394fe1U, 0x3f26e0a13ded796cU, 0xbd3634d13e780514U, 0xbde9fbd03ed1ff57U,
  0x3debed893e27beefU, 0x3f0a624e3e2112f3U, 0xbd4383313eae1d70U, 0x3d2c2b5c3ebd9b48U,
  0xbbfb3c333ea65c5dU, 0x3e2b1ee93df842c9U, 0x3c2296aa3f2838c2U, 0xbd82e7743f026ae9U,
  0x3dc450733e290b05U, 0x3eab23cf3e4c50e9U, 0xbd01f59c3e43082bU, 0x3cae3ee53d3e1a9bU,
  0x3e40f1583e8aaf14U, 0x3ec244a13e478f10U, 0x3bb79b803ece3a33U, 0x3d96388c3e2349e0U,
  0xbd2ca18a3e94d75aU, 0x3eb81c0b3e258f96U, 0xbd98e9d63ec9c1b4U, 0x3dc357bdbd88b87fU,
  0x3e1b65543e2aaa44U, 0x3f266dd9bcea8bb3U, 0x3e29ea9b3ec817d9U, 0x3bb49e683ece1329U,
  0x3e28d6bd3e72e72bU, 0x3ea1957bbce86e9aU, 0x3e0e5f3e3e2eabc3U, 0x3db838de3eeaf744U,
  0x3e4a3d253d309460U, 0x3f492f043df440c2U, 0x3d9783223edbfdb6U, 0x3d02b77e3f0b4253U,
  0x3e892bc73e75712cU, 0x3f72d480bc1c6a9cU, 0x3db29b9f3eee6c3cU, 0x3db4d9613f3ada86U,
  0x3e87afc83d127989U, 0xbdb0fc383e23f30bU, 0x3e4aa285be0cb4d1U, 0xbbea0d39be33036eU,
  0x3a7ae29d3e3dd172U, 0xbd735cbf3e60a5efU, 0x3e294c173bab13a8U, 0xbdbefa0fbd340351U,
  0x3d30d8b0bd3c9160U, 0x3e10d77f3e240a21U, 0x3e56aed5bd013a3eU, 0x3d829e47bca0e0e3U,
  0xbc0baff23d526b07U, 0x3c40faa83e2eba66U, 0x3e859d5d3ddb2568U, 0xbc35f9f6be084a2bU,
  0x3ddf5ec33e117584U, 0xbd89db7e3e7f1aabU, 0x3e7971053d836c4cU, 0x3dac3188be1cac55U,
  0x3e226f883d593bb7U, 0xbd34c0b73db3bd90U, 0x3e9dd6df3d56783bU, 0xbcde63b43d7cf7baU,
  0x3da32b97bcfccca6U, 0x3d9745db3e061c8cU, 0x3dd6ddcabd3efa30U, 0x3d900c4dbd4e52acU,
  0x3d034ed63e367289U, 0xbd41ab3f3d472696U, 0x3e3ff93a3d4b15a4U, 0x3dbfe339be97a70eU,
  0x3e89b7ba3dc0c0f3U, 0xbc64130d3d9321d5U, 0x3ebf005a3ce4d1baU, 0xbdba2fa9bea20549U,
  0x3e1f6e4dbd757d30U, 0xbdbc51943e68550dU, 0x3e0d56873dc6ce3bU, 0x3d413b85be21797cU,
  0xbb63d73ebe156a74U, 0xbdd30dfa3de7de3dU, 0x3eb843c43ae5d814U, 0x3e2517d0bde11dccU,
  0x3dd898aa3e124534U, 0xbcec323e3dbe39e9U, 0x3e9bc508be2b7438U, 0x3e396142be4e2c1cU,
  0x3dd01fb73d66a432U, 0xbde736bf3e3a934fU, 0x3dc167efbd414fa8U, 0x3e190d9dbe6f28bcU,
  0x3d99e78fbb9c80ffU, 0xbdd309d33e95e4adU, 0x3e9c7845bdb4880aU, 0x3e12a99dbdbc68d9U,
  0x3e99241dbd3286e0U, 0x3d9fe8a13e2972e0U, 0x3dc138c43db736e3U, 0xbd8ade5bbe2ae356U,
  0x3e784a87be0b6c48U, 0x3d858fba3e1858c0U, 0x3eb10847bda8bd56U, 0x3dc504a9bdbe3bf3U,
  0xbd6b413cbdf85bd7U, 0x3c8018253dfc3d40U, 0x3e105459bd1d8e09U, 0x3e2b66f6be83062cU,
  0x3e2788203dc5677cU, 0xbdd4c21e3ea3a502U, 0x3e5bd55cbd431c0eU, 0x3e02d6533db826e7U,
  0x3d918f54bc980f0eU, 0xbd9067993e8b8db1U, 0x3e3bd4983c6bce19U, 0x3e2c4001be82e11aU,
  0xbbca2fac3d902fb0U, 0xbcadadb53dbe5070U, 0x3e6798733e10e18aU, 0x3dbf7a7ebe05f1ffU,
  0x3e1083ec3d82666bU, 0x3d15cf5a3e07d96fU, 0x3e8e7e483c780a48U, 0x3e08cb98be3805dfU,
  0xbc562042bdce6ad0U, 0xbd46a7003e8c6b68U, 0x3e40ff4bbcdc09bbU, 0xbd567755bd8c50e9U,
  0xbe8c7b3a3d848c82U, 0xbf8ad8abbc080f71U, 0x3c643fb8bf5f7b0eU, 0x3c7edb11beb859b8U,
  0xbef0e66f3ddc140eU, 0xbf88c53c3e0c33a9U, 0x3caede58bf45e487U, 0xbc36af87bef26b25U,
  0xbe8649a9bb928b78U, 0xbf748d803da9307bU, 0x3e261eecbf238c53U, 0xbda0ec9ebe0469c2U,
  0xbe9536b6be17509dU, 0xbf80094d3d6007c6U, 0x3da4c44abf56a5f8U, 0x3dea3983be1d7dd3U,
  0xbe8df6efbd75cfb0U, 0xbf52c9eb3c2e5a39U, 0x3d31cd78bf7d23f6U, 0xbde59d71bea57febU,
  0xbe870f12bd882614U, 0xbf3dd0283d1aeb38U, 0xbdab3554bf3df26dU, 0xbddce8b9bec0b0ebU,
  0xbe1dc04a3dbaf1d1U, 0xbf22c8443ccc844aU, 0x3e115ca8bf03894cU, 0xbe00b5d2becbefd2U,
  0xbe08b9a93c23b357U, 0xbf1fca6dbb5d298bU, 0x3d95196cbf43cb31U, 0x3da694e2bee8f818U,
  0xbe8c8fec3dd0aa43U, 0xbf8850c53d7aff98U, 0x3d92cd2cbf36ad55U, 0x3d781a32bf0208f5U,
  0xbe890d4cbe87ffebU, 0xbf7e0c0f3d47351dU, 0x3dc653d6bf1cec22U, 0xbe3e2f7bbef926c9U,
  0xbe1538f83c2d466bU, 0xbf98e1303c1eff2cU, 0xbcd297a1bf1b6542U, 0x3d031aaebf1ccb19U,
  0xbe1229d9be439d92U, 0xbf5cb20fbcd940b1U, 0xbc85d478bf794b82U, 0xbdba6786bebf2504U,
  0xbe3f5d2bbe3e65afU, 0xbf5052a13dddf918U, 0x3dcf3d3dbf6d01e8U, 0x3c9621f9be7aa566U,
  0xbe9bd2ecbdda8683U, 0xbf87b4743d8c35bbU, 0x3dbbbd1abf6827afU, 0x3d98ecc0bed4571cU,
  0xbe756f4cbe5b8ef9U, 0xbf340fa83d4487cbU, 0x3ce2653abf31ddf2U, 0xbd03d247be8edcc3U,
  0xbea88764bdfec582U, 0xbf453448bd77fc4fU, 0x3d4924f2bf51e34cU, 0x3c3e29f5bdc1c0ccU,
  0xbe926887be381793U, 0xbf738183bdb2b78cU, 0x3e5ff194bf3710d8U, 0xbde4b62fbebf2f10U,
  0xbea6613e3cb2c02fU, 0xbf509d563db9f5ccU, 0x3d001d0bbf238711U, 0x3d321f74bf054cfcU,
  0xbec5bbb03d13507bU, 0xbec9a9f8bc456471U, 0x3de742ccbf3b1d90U, 0x3d0c62b4be3b29a6U,
  0xbe2ab9793dcb539fU, 0xbf0dcc193e31fb3cU, 0x3d72e8e4bf01a35fU, 0xbda02969bedd424bU,
  0xbea0be99bd020cceU, 0xbf36c4e93e27e961U, 0x3d270d1dbf5690e8U, 0x3dc99353be88d616U,
  0xbf08b94d3be570c2U, 0xbf1546793db76d01U, 0x3e3ad1aabf0469adU, 0xbe0d82ddbed5fe0eU,
  0x3d9e67023e3ac1dbU, 0x3e7a6ee03cc7cfc8U, 0x3e1d99873eb4eb64U, 0x3d85399b3e0d3c6eU,
  0x3e2dc8013e3b2724U, 0x3db43c823df58143U, 0x3db056ca3e9b89d8U, 0xbdf4b6e93e9ed28bU,
  0x3e24180d3db55defU, 0x3e5c2c9f3d069c36U, 0xbd21e4d73ec55b2fU, 0xbd2619fd3d1a7151U,
  0x3e0d65293d80b076U, 0x3ecb74483d04eed4U, 0x3e3462823df6e3d8U, 0xbc637ba73ddf20c1U,
  0x3d8a68853d216091U, 0x3ec7f1b33c9443edU, 0x3d4774403e31a19cU, 0x3d344a2b3e36ffe3U,
  0x3e029e083e007f6eU, 0x3e4e75f3bc4aa7e7U, 0x3e1945623e9bcdb2U, 0x3d775a063eca17b3U,
  0x3c2b3a27bba61a79U, 0x3e4b29693dd68a9eU, 0x3d86905a3ea79570U, 0xb8ba19783de2d716U,
  0x3e27e5a63dd94feaU, 0x3e9a1df63d7bad19U, 0x3d9315333e1d2eddU, 0x3e271f0c3d297ed2U,
  0x3dd49e49bd1126b1U, 0x3ee2ee523da1767aU, 0x3c28bccdbd3dc502U, 0xbc23b0913ea6bba8U,
  0x3e3402833ea991c6U, 0x3e9d57853e20a9d3U, 0x3e508a343e818b1eU, 0xbc699ad13e99d94aU,
  0x3e19d5ad3e546c1bU, 0x3e8306973dba6b84U, 0x3ded17523eb0d1dbU, 0xbcfd5c023e7f9607U,
  0x3e8f0c423dc99fd5U, 0x3e83e286bcfd8fbeU, 0x3c0b90a33ec3ed00U, 0x3d5336c33e6a4559U,
  0x3e23da543b800d22U, 0x3ea458d13e04ae04U, 0x3e22fe313e1ac763U, 0xbdb3b9c7bd447dceU,
  0x3c94fae33e1342daU, 0x3eb38d353e3352feU, 0x3de829ff3e85b92fU, 0xbd668f083d6ac02bU,
  0x3dc83f9f3d7d6741U, 0x3df81474bd828a96U, 0x3ddc7bf93ea4ab2fU, 0xbd651a593dae1043U,
  0x3e152e523e0c9c2fU, 0x3e7e8e733e031646U, 0x3e6369613cd485f4U, 0xbb95a310be8344c9U,
  0x3d7487903e7fd1fdU, 0x3dbf55ee3e3cdfc3U, 0x3dc4bac63ece021bU, 0x3ca8b872be2f997dU,
  0xbd95c7cb3cf2abd6U, 0x3e1573553e1ff8d6U, 0x3df37c363dba168eU, 0x3d72f470be88b921U,
  0x3deaf7483dc76dabU, 0x3ee7a87ebdd89c09U, 0x3e030fe43d9281edU, 0x3c82af693de886dcU,
  0x3e8bcb4e3e1e981cU, 0x3d0528edbe033defU, 0x385c4d90bd964da2U, 0x3d18133c3e059ddfU,
  0x3e959af63cf851d2U, 0x3eb358533a26a72eU, 0xbda2a74e3c5f9f98U, 0x3d50a3d13e6ffa14U,
  0x3dcd982e3c431c3aU, 0x3f0e8d03bca5406cU, 0x3dff78613e954195U, 0x39b7ba1a3ea1e2faU,
  0x3e346e1a3bbc6c00U, 0x3e6c8d7fbd9c4d7eU, 0x3e78174a3e4dc5afU, 0x3b59f0053e11f70eU,
  0x3e8b82c33d042130U, 0x3e0dafdd3dc2155eU, 0xbb807d603d8a1257U, 0x3c6edb723de78677U,
  0x3ec552933cdf7d30U, 0x3e720ca0bcb1e7b7U, 0x3e7418df3d84f909U, 0xbd9d88063c939ddbU,
  0x3e88d476bce3ac55U, 0x3e3c0717bd8b561dU, 0x3da51d71bcc08d3eU, 0xbbf4e0183b38e40dU,
  0x3e5da12abd5749d2U, 0x3e5fb37dbdd5a3f0U, 0x3e7a83c33bc8bf6aU, 0xbc0c969c3e367517U,
  0x3e27a44a3dd70c8cU, 0x3decd0773ce19888U, 0x3e068d1e3e63e357U, 0xbde737113e77b251U,
  0x3e9469f7bd92901dU, 0x3e1c0e43bdce1deaU, 0x3e4844863cfdad79U, 0x3da83ac53d601058U,
  0x3eb460603e50d119U, 0x3e4ce3c33cc0dbceU, 0x3e87b3453e393ff3U, 0x3d3a97543e8255c4U,
  0x3dd55b703dc75e2eU, 0x3ee3b16f3e2b55d9U, 0x3db6cc6a3ab572d6U, 0x3e05590f3e2325aaU,
  0x3dbf561a3e71050dU, 0x3e371e5d3d859c8fU, 0x3e4572b13dda8722U, 0x3d7cf85d3dfabd00U,
  0x3e9c27cc3dc9b6fcU, 0xbbbabd783d922af7U, 0x3abd64de3e558c19U, 0x3d55c2953e6002abU,
  0x3ddf83fa3d1c4b52U, 0x3ccbaa7cbcae7439U, 0x3daa87c63e24010fU, 0x3ce939ef3e0cca50U,
  0x3e911b233d4ccdf4U, 0x3e121ff23e074747U, 0x3d26613b3c24634bU, 0x3d89a8b2bd233660U,
  0x3e7b6a06bc1b21e2U, 0x3d51d6583dfa525eU, 0x3e8037383e81df20U, 0x3d899ce13ccac09cU,
  0x3e2f61963d936b5eU, 0xbe46efab3d3a1290U, 0x3d873e393dfabcdfU, 0x3d804e173dc63f43U,
  0x3e6f68b1bace30f7U, 0xbde08b2a3caf6e68U, 0x3e618d753e2711cdU, 0xbd874198be730c67U,
  0x3dbca23c3cb991bdU, 0xbe029cf93de2d002U, 0x3e69b47b3d294420U, 0x3cc77e72bcfe4320U,
  0x3d1e76a23e6116c8U, 0x3c069fd6bceba9b0U, 0xbd3d6a133d8e5ce5U, 0xbdeab863be03c9dcU,
  0x3e3bc3853dd24e61U, 0x3def97dabd9da290U, 0x3e5243683dd66270U, 0xbda1d4e8bdfe2f7cU,
  0x3e1d63d43e1ce5cbU, 0xbd88ab35bd89f0feU, 0x3d06166bbe3ee6e5U, 0xbe51fa9cbdc33f08U,
  0x3e528cb5bd9124c8U, 0x3e6a0e0ebdae1a8fU, 0x3d43bc6bbce80903U, 0xbe70c247bdaa5be6U,
  0x3df4880e3de6d9cbU, 0x3e038d643d76345cU, 0xbc186647bd2932b6U, 0xbe3d51683e73385cU,
  0xbeb07ae6bdc5ebfcU, 0x3cb0d9ab3da67492U, 0xbe1b21613cef1212U, 0xbe47f1bd3e81193dU,
  0xbe5d615a3dc0a711U, 0x3de067bf3e4d6229U, 0xbc906af93e4ec4efU, 0xbf0291f83d115b8aU,
  0xbe89cdaebb758d3bU, 0x3e90de993c977da9U, 0xbc05c26c3d7907b9U, 0xbee7fa943e846488U,
  0xbdceee923e4498c4U, 0x3e970a153e4e3c3cU, 0xbe3106013da31689U, 0xbecc7c0e3eab9d95U,
  0xbe87a6013921be5eU, 0x3da841963e30d685U, 0xbe0bd6363e31f263U, 0xbee24e703eabd847U,
  0xbe28930bbd11eba6U, 0x3d3bb0ee3dd6d4f3U, 0xbe96c4ac3e9575c3U, 0xbeb3dd273dfeb0d3U,
  0xbe2e08213de28b64U, 0x3e50ef4f3e1d7a5bU, 0xbe3923373d023e4bU, 0xbf0e36ed3e128d21U,
  0xbec238ac3d89b13fU, 0x3db472ca3e3e9a55U, 0xbe67fbeb3e56be55U, 0xbed5e75b3e29073aU,
  0xbe9a62383dcb6928U, 0x3e5718313c251c46U, 0xbecc80523e008f96U, 0xbea476903e0fe09fU,
  0xbe604e16bd7551d5U, 0x3e93afdd3e31723eU, 0xbe742e8a3e2b0a9fU, 0xbe8ea5963e1c37a7U,
  0xbeacbf103bf33645U, 0x3e6c148e3da1d400U, 0xbe198f1d3e6f1a23U, 0xbec9d4633ec17d43U,
  0xbeb906f3bc387a2aU, 0x3d6786cf3d5cf33bU, 0xbe7e7e113d5f4266U, 0xbed6f65d3e96c397U,
  0xbece7aac3e8f43e6U, 0x3d4209563d705311U, 0xbea786b83e10d09bU, 0xbe93872b3eb51260U,
  0xbe4f08323d5fb4a4U, 0x3e0b701bbcdac0adU, 0xbe6897633d632392U, 0xbef27c0e3e6e04dcU,
  0x3ce9e9123c84cc6bU, 0x3ea4b210bca8bf52U, 0xbdb9451d3e7eb406U, 0xbeceb1623d217f3eU,
  0x3db718613dcc777cU, 0x3e40ad1d3da22329U, 0xbe4231f23db5996eU, 0xbead0d4d3d6f0008U,
  0xbe72b8ce3dce23c5U, 0x3d95fe373dce7544U, 0xbec6e1743e4fa774U, 0xbeb799d63e48ce33U,
  0x3db03ee73db93d6dU, 0x3e15b3903ddb02d6U, 0xbe7284c33e201a0dU, 0xbebabf843eba5c66U,
  0x3c908765be14d20aU, 0x3d88fdd7bcd97dd8U, 0xbe5679e13e602b3eU, 0xbeffc4893e5c7119U,
  0x3db97e9dbcdd4e95U, 0x3e9b03bc3df5c4e9U, 0xbdab86543d0a00b3U, 0xbe9e1cf83da6046cU,
  0xbf17978f3cf7ab4bU, 0x3de167ca3c344db6U, 0x3d20a2083e9cab59U, 0xbe9ab0e03e517482U,
  0xbf10fa573e01a305U, 0x3e39a75ebc55e9c6U, 0xbdaccf023e09c127U, 0xbed38da63e97a7d3U,
  0xbcaffae73cce54ecU, 0x3e9f45e63cf7ab81U, 0xbccdcec43f269fdcU, 0xbc71ee0b3e9b1195U,
  0x3db71a823e377b4aU, 0x3e7b68363e165848U, 0x3cffda4a3eda2d6cU, 0xbd9af3203e9dc589U,
  0x3ea146653c18255dU, 0x3e9fdd723d5a002dU, 0xbd473a393ed74997U, 0xbdc7cf453ecb7fdcU,
  0x3e15cac13d7fd427U, 0x3f1f87de3dd9f754U, 0x3dd19a723eebe029U, 0xbcacf7883e813bfeU,
  0x3de6debf3ded2e76U, 0x3ec748cf3e3a38a2U, 0x3db120bd3e82937fU, 0x3da895e53e92f5a3U,
  0x3e88b03bbd8b122dU, 0x3f0cbdeebc899069U, 0x3d8fcbb03e995583U, 0x3c9a0bd53ed80c77U,
  0x3e373fe4bbb0e3fcU, 0x3ecf3130bd24d599U, 0x3e443ca73ed05fc1U, 0x3d96d15d3f02c0ecU,
  0x3ea4b5cabbf452d5U, 0x3ebe90543e4a7330U, 0x3e41da683efa7622U, 0x3e1822163eb12fb0U,
  0x3ce70e1d3d2a326bU, 0x3f412138bd25196cU, 0x3e053e943ea27bfbU, 0x3d895b483f1faa79U,
  0x3e0325e33e83de49U, 0x3ee7e540bd550123U, 0xbc82d2dd3e813b14U, 0x3e14b8383ef4cac5U,
  0x3e0ee1423e45e099U, 0x3ee4f6303e1d9b79U, 0x3dcbcf573f18f162U, 0x3d3fc7f23f0aeec6U,
  0x3e5f544e3e7d454dU, 0x3eba24a0bd39db2aU, 0x3e2972d33f215563U, 0x3dcf292b3ec0c5c0U,
  0xbd3221a43d9cd4f6U, 0x3f24be14bba2466eU, 0x3c386fac3e2b4086U, 0x3dd586203e50f56aU,
  0x3e2c85533e40448eU, 0x3f0249513db3d2a8U, 0xbceb61443f0ff6b6U, 0xbd67ae013e797c06U,
  0xbe06808f3e164e44U, 0x3e660f753e0e59f9U, 0xbd67edea3f107244U, 0xbc07cc193e6f090eU,
  0xbdc6e93a3e9db1ffU, 0x3ec265463d19d58fU, 0xbcf42a433eac6378U, 0x3e1ca124bd4fa033U,
  0x3df2f8f83dc7d8a4U, 0x3e326cb03dd45276U, 0xbd641a723ef2be10U, 0xbcba445e3df749bfU,
  0xbd108fd23eaeb861U, 0x3ee0f627bd29fc9fU, 0x3dda30043e59b8f7U, 0xbdb3a8f8bcb4d19cU,
  0x3befd0cc3e6103dcU, 0x3f2722803e0aab66U, 0x3e17c2f33e50bee3U, 0xbc9c8fb13ec8cc71U,
  0x3e41e7a63d933949U, 0x3ea338a4bd4612c1U, 0x3db3e5f13e3f0f70U, 0x3b48d3653ee62806U,
  0x3d8788fb3e7b08e0U, 0x3f285b55bcb9fdd9U, 0x3d3eac693e85082aU, 0x3accd5203eeede73U,
  0x3da700463e9c915aU, 0x3f3df8cb3d1791f6U, 0x3e23fa0d3e81513dU, 0xbb9cdfee3f2a8abaU,
  0xbce281793da8d1f0U, 0x3dccd2503e2043f2U, 0x3e24391f3e9c9b87U, 0x3d5b83673e4c8d3dU,
  0x3cb5be273d0e700eU, 0x3e1744be3df71062U, 0x3e105a863ea2d313U, 0x3caf0abc3e205c2fU,
  0xbc9fbd0e3e3b2addU, 0x3e0a1d75bcca7851U, 0x3d0858c63e2bcde2U, 0xbd4ab4913e852f59U,
  0x3c95e86d3e849119U, 0x3e5e139f3dcbc691U, 0xbb519006bcd3134eU, 0xbd2b751d3e1b60fcU,
  0xbdaeb61c3b5867fcU, 0x3dd225673b53fb0fU, 0x3c942b063e6af0feU, 0xbc96912c3e8e64a0U,
  0xbe4864b33ca2aafcU, 0x3dbd0addbdd2c566U, 0x3dcc91c83e115288U, 0xbd24e2413e75a0edU,
  0xbe8f4bd73e07602fU, 0x3e62ff43bdf2598bU, 0x3dbb519e3d461eddU, 0x3cfdfa1d3e9b0322U,
  0x3e028edd3deeccedU, 0x3e8830193bafaf15U, 0x3e0e27743e0dba60U, 0x3e1495ac3eefd0a5U,
  0xbd7ef9c43d5d9893U, 0x3ed9bae2bd8fb9ffU, 0x3d7b3af93e10aa80U, 0x3e11bf463f0dffc4U,
  0xbe770a343e867a8fU, 0x3e5fb678bdce2c08U, 0x3e105bbe3e2201c4U, 0x3e13e5e53f019740U,
  0xbd98f22b3e147388U, 0xbc7099643e212764U, 0x3cb254753e5429e1U, 0x3d1add793f0331faU,
  0xbe0b6bb23e7b4c75U, 0x3e4e349f3cbc65b0U, 0x3e235b9b3e591592U, 0x3dfb1da03ebe194bU,
  0xbdc0ef923db00224U, 0x3e927bb93dc7931dU, 0x3dfa6f673d0bd876U, 0xbc4199e93ef2cf94U,
  0x3e091c443e2ec7d5U, 0x3e7a5e573e023167U, 0x3d9dd3243e9d5b21U, 0x3c42ee873e986347U,
  0xbe4f89b33e6da694U, 0xbe61f2303bc1dfdcU, 0x3da713243e9736caU, 0x3e190e063e4d7c14U,
  0xbdbc1b533e697cfdU, 0xbd75d31f3dddce6dU, 0x3bf741513e7c9327U, 0x3e0fe97f3db52af8U,
  0xbeab2a8c3e485cf8U, 0xbdcd61a63dad34f4U, 0x3dec87743d53da05U, 0x3dad61843dfba3f8U,
  0xbe768e4a3e7cdd3dU, 0xbd5c74223dfae17aU, 0x3dcf1d2c3ca821cfU, 0x3dae2b013e80d13fU,
  0xbe71d0203e152710U, 0x3cafcde4bd1f8518U, 0x3cea4c493ec7cf3eU, 0x3d93cda83ef903cdU,
  0xbdd5cc0e3e87de3bU, 0x3e2d0cd6bd915586U, 0x3cb07419be833451U, 0x3b086b603ec556dcU,
  0x3e58de7c3e79c5fbU, 0x3eadbd7a3d82621dU, 0x3cbe31cb3df906b3U, 0xbd86b88e3ea012c5U,
  0x3df078213e2614d5U, 0x3e8e9cf93e35dfe8U, 0x3d9014c33e981436U, 0xbd28dba93f333440U,
  0x3d5d9b9f3d3a1fb4U, 0x3ed306a03d522ce8U, 0x3d46f8a03f1cf12bU, 0xbd495e3e3e61354bU,
  0x3e9f2a883cb8505bU, 0x3e9204593b9d3a07U, 0x3e28173d3f181803U, 0x3d7b4fbf3e9b3ebbU,
  0x3e031435bd25b71cU, 0x3ead104f3d852d01U, 0x3bee85243f041f5fU, 0x3d7912903e416bbfU,
  0x3d505f773e08b0a0U, 0x3f153f5d3d2f129fU, 0xbcda6fab3e8ca48cU, 0xbd2e1eed3d2f732bU,
  0x3e725e343c98b7d9U, 0x3f09b9d93e459e67U, 0xbb2bacc13eca5202U, 0x3d43ca6a3ef06b72U,
  0xbc1edcc33de1a6beU, 0x3ed93d593be4f5a8U, 0xbd68da1f3ea9f1e0U, 0x3bbb0bf83effdeaaU,
  0x3e2d94db3cf3373dU, 0x3e84a1f1bd46222eU, 0x3e30dc5f3ed7441aU, 0xbd7619773e80713dU,
  0x3e1ef1703e950e50U, 0x3eb4f23e3bcd2487U, 0x3ba2560c3ec54544U, 0x3e1a19073f0b6a50U,
  0x3e239e363e1bb330U, 0x3f399e733bea6f4aU, 0x3df2c3113e64c161U, 0x3d8cd8793f3637cfU,
  0x3e2b8d9d3e7f69b9U, 0x3f2e7f8e3d8ecb6aU, 0x3e17e68f3f00cc5eU, 0x3d297f013ee38bbbU,
  0x3d775c003e590330U, 0x3ef701013d75369fU, 0xbd288dc93f147ecdU, 0xbcd208423f12fd6cU,
  0x3ded96413e435779U, 0x3f0e99babcbb17f3U, 0x3e2aa8d83f01e553U, 0x3dfc5cf23ebf7363U,
  0x3e3731f33d992b35U, 0x3f0ea8883d90336aU, 0x3e1d1b9d3e47c426U, 0x3d9d88933eae4efdU,
  0x3e1c50173e1bf8e3U, 0x3e9f27e23dfc95efU, 0x3db2e4093ef08186U, 0x3c610bec3eef8069U,
  0xbd826d1e3e978e86U, 0x3ea88a913da92676U, 0x3df85a513f0a1e29U, 0x3d2bea293ed21849U,
  0x3dd96bcc3e10416cU, 0x3eab3abd3de06ca5U, 0xbbefe8203ed75e6fU, 0x3dbbd5393dc310daU,
  0x3e1b72a73e494b3dU, 0x3e6a99fe3e246ddeU, 0x3dcf71f23ec36bfeU, 0x3c5684033deeca33U,
  0x3d81329f3eb48ab8U, 0x3e3f5589bcef7c5cU, 0xbda14c463e4737f5U, 0x3cc154cc3c72ad5aU,
  0x3e69f3b13eafad72U, 0x3f16daab3dcd178fU, 0x3e0ee5873edd8dfbU, 0xbdbcc0053f1385abU,
  0x3df0f56c3d623b75U, 0x3ea995d33dcdfb18U, 0x3d289823bcdfee72U, 0x3c492ab23e925449U,
  0x3de9ce183e2885d0U, 0x3f183b463d9f7357U, 0x3d849f533e9f5a0fU, 0x3ad0e0553eb32ce7U,
  0x3e9d5fd63e9a17b1U, 0x3f583b513c871489U, 0x3d518a633ed7ca70U, 0x3c59e9733f177bdeU,
  0x3e3bfaa53da1c728U, 0x3edd39ae3d9710c3U, 0x3e004b6c3f00422bU, 0xbd23b5f63ea0b023U,
  0x3e0f854d3e0ab4e0U, 0x3e23048c3d33041bU, 0xbbc4fb913eac99efU, 0x3db2a77f3e73406eU,
